<blk> 0.0
<sos/eos> 0.0
<unk> 0.0
▁HAI -4.3140363693237305
▁KHÔNG -4.3197126388549805
▁TRĂM -4.349342346191406
▁MỘT -4.368563652038574
▁BA -4.561036109924316
▁MƯƠI -4.639677047729492
▁LÀ -4.660153865814209
▁NĂM -4.6641669273376465
▁VÀ -4.673882484436035
▁CỦA -4.735559940338135
▁CHÍN -4.790743827819824
▁SÁU -4.794357776641846
▁TÁM -4.798191070556641
▁BỐN -4.7989420890808105
▁CÓ -4.839417934417725
N -4.959912300109863
I -5.0536885261535645
▁CÁC -5.112476825714111
▁TRONG -5.139917850494385
T -5.1459150314331055
NG -5.1944708824157715
▁ĐƯỢC -5.217012405395508
▁CHO -5.21783971786499
▁VỚI -5.28461217880249
▁NGƯỜI -5.292791366577148
▁ĐÃ -5.296263694763184
M -5.312341690063477
▁MƯỜI -5.332350254058838
▁NGHÌN -5.423371315002441
▁NGÀY -5.43485689163208
O -5.449843883514404
▁NGÀN -5.4679388999938965
▁BẢY -5.470885753631592
▁BẨY -5.513098239898682
U -5.528292179107666
▁NÀY -5.562224864959717
▁NHỮNG -5.585937976837158
▁CÔNG -5.643517017364502
▁RA -5.689035892486572
C -5.694981575012207
▁Ở -5.71536111831665
▁ĐỂ -5.718242168426514
▁TRÊN -5.727975368499756
▁ĐÓ -5.7387847900390625
▁KHI -5.756419658660889
▁TẠI -5.765132427215576
▁ĐẾN -5.78093147277832
Y -5.799158573150635
P -5.802371025085449
▁THÌ -5.8217573165893555
▁SẼ -5.855797290802002
▁VỀ -5.8821306228637695
▁CŨNG -5.884619235992432
▁NHƯ -5.9108123779296875
A -5.91381311416626
▁MÀ -5.914327144622803
▁TỪ -5.9199957847595215
▁THÁNG -5.923311233520508
▁MÌNH -5.928914546966553
▁CÁI -5.935658931732178
▁GIỜ -5.936806678771973
▁VÀO -5.940131187438965
▁PHẨY -5.954973220825195
▁ANH -5.963127136230469
▁THỂ -5.967130184173584
▁THÀNH -6.034724235534668
▁NAM -6.054709434509277
▁ÂM -6.085472583770752
▁ĐỒNG -6.086215972900391
▁SỐ -6.089892387390137
▁LẠI -6.094193458557129
▁BỊ -6.097884178161621
▁NHÀ -6.1124749183654785
▁QUỐC -6.117356300354004
▁ĐẦU -6.117727279663086
▁HIỆN -6.130579948425293
▁NHIỀU -6.134072780609131
▁LÀM -6.1510515213012695
▁B -6.172275543212891
▁ĐI -6.184612274169922
S -6.188193321228027
▁PHẢI -6.189868450164795
▁SỰ -6.193195819854736
▁VIỆT -6.194905757904053
▁ÔNG -6.201508522033691
▁THEO -6.204585075378418
▁ -6.208010673522949
▁TÔI -6.228246688842773
▁EM -6.235887050628662
▁SAU -6.241054534912109
▁VIỆC -6.245734691619873
▁CHÍNH -6.256268501281738
▁TRIỆU -6.260978698730469
▁NƯỚC -6.263375759124756
▁TA -6.266537666320801
▁NHÂN -6.271450996398926
▁A -6.271718978881836
▁BẠN -6.2998223304748535
▁CON -6.307210445404053
▁ĐỘNG -6.308221817016602
▁BỘ -6.311779022216797
▁S -6.3203959465026855
▁CHẤM -6.320672035217285
▁GIA -6.321656227111816
▁HÀNG -6.331356048583984
▁CHỈ -6.345456123352051
▁THÔNG -6.346896171569824
▁THẾ -6.360711097717285
▁M -6.361260890960693
▁MỐT -6.371043682098389
▁QUAN -6.374577522277832
E -6.386178493499756
▁NÓ -6.392218589782715
▁BIẾT -6.397552967071533
▁NHƯNG -6.399901390075684
▁ĐÂY -6.405666828155518
▁V -6.424997806549072
▁TRUNG -6.426825523376465
▁HƠN -6.432300567626953
▁ĐANG -6.433590888977051
▁CÒN -6.435848712921143
▁TƯ -6.437006950378418
▁TỚI -6.461611747741699
▁ĐỊNH -6.466169834136963
▁VIÊN -6.476955890655518
▁NHẤT -6.477633476257324
▁RẤT -6.479357719421387
▁MỚI -6.496084213256836
▁TRƯỚC -6.4972686767578125
▁CA -6.500056743621826
▁CHÚNG -6.513522148132324
▁QUA -6.519068717956543
▁C -6.519411563873291
G -6.530218124389648
H -6.53502082824707
▁CƠ -6.535366058349609
▁ĐIỀU -6.539347171783447
▁THỜI -6.549002647399902
▁HỌC -6.5611138343811035
▁TRƯỜNG -6.563013553619385
▁DÂN -6.571705341339111
▁GIÁ -6.571760654449463
▁TIN -6.578197956085205
▁CẢ -6.579855442047119
▁PHÁT -6.593203067779541
▁HỘI -6.5933837890625
▁I -6.59858512878418
▁CÙNG -6.604984283447266
▁L -6.608639717102051
▁NÓI -6.632040023803711
▁ẢNH -6.653966903686523
▁RỒI -6.654725551605225
▁R -6.670510292053223
▁AN -6.679467678070068
▁LÊN -6.685346603393555
NH -6.686036586761475
▁SINH -6.6875081062316895
▁THỰC -6.687991619110107
▁TH -6.688221454620361
▁HÀNH -6.689789772033691
▁NHẬN -6.692145347595215
▁VỤ -6.694992542266846
▁HÌNH -6.698582172393799
▁ĐỐI -6.700445175170898
▁HỢP -6.7060322761535645
▁NGANG -6.709345817565918
▁VÌ -6.712501525878906
▁DO -6.713710784912109
D -6.722378730773926
▁MỸ -6.740805625915527
▁TẾ -6.769402027130127
▁THẤY -6.7748003005981445
▁XE -6.775177001953125
▁CUỘC -6.775238990783691
▁Đ -6.777913570404053
▁CHỦ -6.779506683349609
▁G -6.790756702423096
R -6.810790061950684
▁TIẾP -6.817032337188721
▁N -6.826349258422852
▁ĐỀ -6.827506065368652
▁THỦ -6.831534385681152
▁CÔ -6.832240581512451
▁HÀ -6.834264278411865
▁ĐẠI -6.838188648223877
▁LINH -6.840536117553711
▁H -6.841084003448486
▁CAO -6.84334659576416
▁ĐỘ -6.843735694885254
▁SẢN -6.843939781188965
▁BÁO -6.848628997802734
▁KẾT -6.851990222930908
▁CÁCH -6.85554313659668
▁T -6.857657432556152
▁NAY -6.858372211456299
▁LIÊN -6.858377933502197
▁D -6.859316825866699
▁NÊN -6.862099647521973
▁XUẤT -6.864607334136963
▁GẠCH -6.8739118576049805
▁E -6.876026153564453
▁DỤNG -6.878722667694092
▁DỰ -6.885425090789795
▁NÀO -6.893158435821533
▁LÝ -6.896199703216553
▁CHỨC -6.896429061889648
▁TRÌNH -6.8980607986450195
▁THỊ -6.899459362030029
▁GÌ -6.901770114898682
▁LƯỢNG -6.905746936798096
▁BẢN -6.915464878082275
▁GIỚI -6.921024799346924
▁O -6.921593189239502
▁MÉT -6.923255443572998
▁TỔNG -6.92854642868042
▁RẰNG -6.945102214813232
▁KHÁC -6.9457902908325195
▁ĐƯỜNG -6.948435306549072
▁PHÚT -6.956021785736084
▁TÌNH -6.966861724853516
▁HỌ -6.972525596618652
▁NGHIỆP -6.972999095916748
▁THỐNG -6.9761643409729
B -6.977137088775635
▁TĂNG -6.977916240692139
▁U -6.979289531707764
▁ĐIỂM -6.980754852294922
▁CHỊ -6.980756759643555
- -6.981775760650635
▁TIỀN -6.985050201416016
▁VẪN -6.98779821395874
ER -6.988342761993408
▁NỘI -6.988614082336426
▁TÀI -6.990783214569092
▁PHẦN -6.991472244262695
▁KINH -6.992038726806641
K -6.992273807525635
CH -6.992718696594238
▁BÌNH -6.995175361633301
▁PHỐ -7.000609397888184
▁GIẢI -7.001598834991455
▁KHU -7.0057830810546875
▁NG -7.007267475128174
▁TÁC -7.019070625305176
▁VẬY -7.0236945152282715
▁CẦU -7.027769088745117
▁LẺ -7.031865119934082
▁HAY -7.033366680145264
▁CH -7.034170627593994
▁NH -7.034572124481201
▁CHÉO -7.041722774505615
▁THỨ -7.043107986450195
AN -7.0554938316345215
▁LỰC -7.055715560913086
▁TÂM -7.05674409866333
Ế -7.060898780822754
▁PHÒNG -7.061391353607178
▁TỰ -7.061587333679199
▁GIAO -7.064797401428223
▁TOÀN -7.065459728240967
▁LẦN -7.079237937927246
▁VĂN -7.081595420837402
▁BẢO -7.086187362670898
▁MẶT -7.09322452545166
▁MINH -7.095378875732422
▁NĂNG -7.095653533935547
▁THƯƠNG -7.0958476066589355
▁VỊ -7.098682880401611
▁GIÂY -7.1027350425720215
▁Ý -7.10298490524292
▁TỔ -7.105228424072266
▁DIỄN -7.109452724456787
▁CẤP -7.113448619842529
▁BÀ -7.114373683929443
▁BỐ -7.114573001861572
▁X -7.118743419647217
RA -7.123093605041504
▁ĐIỆN -7.132082462310791
▁ĐỘI -7.136247158050537
▁BÊN -7.1366496086120605
▁DỊCH -7.138301372528076
▁LỚN -7.140156269073486
L -7.1460466384887695
▁TẬP -7.150249004364014
▁PHÁP -7.157610893249512
▁MÁY -7.1608195304870605
▁BỆNH -7.167046070098877
Á -7.167726516723633
▁ĂN -7.170842170715332
▁TUỔI -7.176372528076172
▁QUÁ -7.176888465881348
▁KHOẢNG -7.178298473358154
▁CHƯA -7.179972171783447
▁SAO -7.186891078948975
▁DOANH -7.191486358642578
▁NẾU -7.1918206214904785
▁THU -7.191866874694824
▁NGOÀI -7.193924903869629
▁HỆ -7.198580265045166
▁VI -7.202658653259277
▁VỪA -7.204913139343262
▁BẰNG -7.205319404602051
▁TIÊN -7.207115173339844
Ả -7.212622165679932
▁CẢM -7.213335990905762
▁CẢNH -7.214050769805908
▁TRIỂN -7.214912414550781
▁CHIẾN -7.217755317687988
▁XÃ -7.220268249511719
▁QUY -7.226244926452637
▁CẦN -7.228785037994385
▁TRỪ -7.233298301696777
▁BAN -7.235835552215576
V -7.236868381500244
▁THANH -7.239442348480225
▁QUÂN -7.240999698638916
▁K -7.244258880615234
▁GIAN -7.244665622711182
▁BẮT -7.2463555335998535
▁THƯỜNG -7.257073879241943
▁NHIÊN -7.259253978729248
▁LĂM -7.260396957397461
▁KI -7.261533737182617
▁ÁN -7.261575222015381
▁THI -7.265523433685303
▁PHƯƠNG -7.267958641052246
▁KHÁCH -7.269459247589111
▁ĐƯA -7.271468639373779
▁TẠO -7.271562576293945
▁TR -7.273974895477295
▁TÍNH -7.27564811706543
▁P -7.281468868255615
▁SỬ -7.281847953796387
Ắ -7.282407283782959
Ạ -7.285701751708984
▁Y -7.289024353027344
▁TRA -7.2900390625
▁GẦN -7.291473865509033
▁KỲ -7.292510986328125
▁TRỞ -7.294567108154297
▁LO -7.294820785522461
▁TRANG -7.295619487762451
Ô -7.298685550689697
▁QUẢ -7.2996439933776855
▁CỘNG -7.301241874694824
▁Ạ -7.302799701690674
▁TỈNH -7.303454875946045
Ố -7.310408592224121
▁SÁT -7.31563138961792
RI -7.315876483917236
▁MUỐN -7.318187713623047
▁TRỌNG -7.319559574127197
IN -7.323349475860596
▁SĨ -7.326918125152588
▁CHÍ -7.332692623138428
▁HÓA -7.3400983810424805
▁Á -7.341731548309326
▁QUYẾT -7.342177867889404
. -7.347714900970459
▁TRƯỞNG -7.348114967346191
▁BÁN -7.35104513168335
▁YÊU -7.357553958892822
▁THỨC -7.359599590301514
▁SỐNG -7.364299774169922
▁TRỊ -7.364593982696533
▁MI -7.365187168121338
▁TY -7.368550777435303
▁NHĂM -7.368775367736816
▁CHI -7.372688293457031
▁HIỆU -7.380302429199219
▁VỰC -7.385660171508789
▁NGUYỄN -7.386019229888916
▁ĐẠO -7.389371395111084
▁SỞ -7.389909744262695
X -7.39591121673584
▁THAM -7.398892879486084
▁F -7.403665065765381
▁LÚC -7.4103803634643555
RO -7.410407543182373
▁SO -7.4114861488342285
▁ĐỊA -7.41714334487915
▁GIÚP -7.418739318847656
▁BẤT -7.421375274658203
▁MẠNH -7.426261901855469
▁TIÊU -7.426687240600586
▁TÊN -7.429644584655762
▁TỤC -7.43900203704834
▁HÔM -7.440103530883789
▁NỮA -7.4454345703125
Ấ -7.447734832763672
▁GA -7.44808292388916
RE -7.448899269104004
▁CÁ -7.450751304626465
Ê -7.455130100250244
▁LI -7.456874847412109
EN -7.459784984588623
▁HỒ -7.460901737213135
▁CHUYỂN -7.4686174392700195
▁CHIẾC -7.474094867706299
▁MA -7.475123405456543
▁LÔ -7.477597713470459
▁CHIA -7.480625629425049
▁GI -7.481596946716309
▁PHẨM -7.482181072235107
Z -7.482227802276611
Ọ -7.483062267303467
▁KIỂM -7.4846720695495605
▁HOẠT -7.485677242279053
LE -7.490340709686279
▁CHẤT -7.490347862243652
▁HOA -7.497168064117432
▁NỮ -7.497942924499512
▁TIẾN -7.498154163360596
▁LUÔN -7.4997429847717285
▁ĐẤU -7.504240989685059
▁TAY -7.505442142486572
W -7.5077056884765625
LA -7.509020805358887
▁VẤN -7.5105180740356445
▁LOẠI -7.513617992401123
▁HOÀN -7.514429092407227
▁ĐÔNG -7.515961647033691
▁BAY -7.520793437957764
▁NGHỆ -7.5228962898254395
▁TÌM -7.525875091552734
▁TIẾNG -7.526023864746094
▁NHAU -7.529183387756348
▁KHIẾN -7.53058385848999
▁HẾT -7.530782222747803
▁KHÓ -7.531016826629639
▁BIỆT -7.534112930297852
Ệ -7.538645267486572
▁GIẢM -7.539263725280762
▁ĐẶC -7.541261672973633
▁ĐÁNH -7.544177055358887
▁TUY -7.553444862365723
/ -7.555622100830078
▁MUA -7.559267997741699
▁ĐỔI -7.559576988220215
▁THÊM -7.560685634613037
▁TRẬN -7.561901569366455
▁DI -7.5624895095825195
▁THIẾT -7.564631462097168
▁ĐÚNG -7.565723896026611
NA -7.567339897155762
▁QUYỀN -7.568919658660889
▁CHUYỆN -7.570193767547607
▁SÁNG -7.572845935821533
▁MỨC -7.573293685913086
▁ĐÌNH -7.574111461639404
AR -7.578912734985352
▁NGA -7.579830646514893
Â -7.579842567443848
ON -7.580859661102295
▁GIỮA -7.581747055053711
▁CỔ -7.5830254554748535
Ồ -7.5838446617126465
▁CÂU -7.584310054779053
▁THÂN -7.592819690704346
▁MẸ -7.593214511871338
▁LỜI -7.593489170074463
Ò -7.5967817306518555
▁MỌI -7.59799337387085
▁VÒNG -7.598230838775635
▁MANG -7.599315643310547
▁ÉP -7.5994367599487305
▁CỨU -7.601930141448975
F -7.606792449951172
Ù -7.609184265136719
▁NGÂN -7.610406398773193
▁KHAI -7.612964630126953
▁ĐẤT -7.614903450012207
▁MẠNG -7.615187168121338
▁DÙNG -7.616494178771973
À -7.617048263549805
▁TƯỢNG -7.6175971031188965
▁BAO -7.6201605796813965
▁ĐOÀN -7.620858192443848
▁ĐỀU -7.62087345123291
LI -7.622158050537109
▁KIẾN -7.622402191162109
▁TRÍ -7.6232147216796875
▁TRẺ -7.6239190101623535
▁TỐT -7.627293109893799
▁AI -7.62989616394043
▁PHẠM -7.631925582885742
▁NHẬP -7.635289192199707
▁TRUYỀN -7.638430595397949
▁DẪN -7.645898342132568
▁XEM -7.647128105163574
▁CHƯƠNG -7.6502685546875
Ộ -7.654879570007324
▁ỨNG -7.656257152557373
▁TẤN -7.656443119049072
EL -7.65707540512085
▁QUÝ -7.661157131195068
▁TRỢ -7.661830902099609
▁LẬP -7.6624755859375
▁NGUYÊN -7.668234825134277
▁TÍCH -7.669483661651611
▁VIỆN -7.671369552612305
▁VÔ -7.673901557922363
▁PHỦ -7.673959732055664
▁GÂY -7.674535751342773
▁GIẢ -7.676947593688965
▁THÁI -7.677221298217773
▁NGHỊ -7.677757263183594
▁BỎ -7.6795806884765625
ES -7.684563159942627
▁KẾ -7.684977054595947
▁GỌI -7.686013221740723
▁GIÁO -7.688776016235352
▁BIỂN -7.690601348876953
▁NGAY -7.691103935241699
▁LA -7.696207046508789
▁CHUNG -7.697220325469971
▁NHẬT -7.698453903198242
▁SÁCH -7.6989970207214355
▁GẶP -7.700932025909424
▁CHÂU -7.702826023101807
▁TỪNG -7.703646659851074
ST -7.704369068145752
É -7.707159519195557
▁DU -7.708326816558838
▁KH -7.711945056915283
▁CỨ -7.712733268737793
▁ĐƠN -7.720088958740234
▁CỐ -7.721817970275879
▁HOẶC -7.726922988891602
▁TỬ -7.726983547210693
▁XÁC -7.728431224822998
▁HẢI -7.728648662567139
▁ĐĂNG -7.728908538818359
▁ĐẸP -7.729892253875732
▁DIỆN -7.731274604797363
▁ĐÁ -7.733012676239014
▁CUỐI -7.733525276184082
▁SỨC -7.734132289886475
▁ĐẤY -7.735513687133789
▁CHẾ -7.735724449157715
▁THÔI -7.736780643463135
Ã -7.736874580383301
▁BÀN -7.738214492797852
▁NGUỒN -7.74086332321167
▁XOẸT -7.744279861450195
▁HỘ -7.747030735015869
▁XUỘC -7.747459888458252
▁CHỨNG -7.747864246368408
▁NHIỆM -7.748295783996582
AL -7.7519917488098145
▁GIỮ -7.755614757537842
▁TẤT -7.75595235824585
▁LỊCH -7.756025314331055
▁BÓNG -7.757109642028809
▁MỖI -7.757355690002441
▁GỜ -7.758766174316406
▁ẤY -7.7592291831970215
▁VŨ -7.7601823806762695
▁BỞI -7.762043476104736
▁PHỤ -7.766594409942627
▁KHÍ -7.7674336433410645
Ầ -7.77671480178833
▁VỆ -7.777064800262451
▁CÁO -7.77772331237793
▁THUỘC -7.780854225158691
▁TI -7.787708282470703
▁DA -7.789092063903809
▁HỒI -7.790612697601318
▁NHÌN -7.791863918304443
▁HÒA -7.792102813720703
▁THÍCH -7.7926788330078125
▁THAY -7.792780876159668
LO -7.792840480804443
▁SA -7.793087005615234
IA -7.794248104095459
▁KHỐI -7.794260025024414
▁VẬT -7.794912815093994
CO -7.797962665557861
▁XÂY -7.798208236694336
▁HOÀNG -7.798242568969727
▁MỜ -7.801993370056152
Ớ -7.810300827026367
▁HA -7.810988903045654
▁DÙ -7.811397552490234
▁VÊ -7.8114399909973145
▁BIỂU -7.8150248527526855
▁HỎI -7.815080165863037
▁HO -7.818511486053467
▁TO -7.82289981842041
▁DỰNG -7.8264617919921875
▁BÂY -7.829412937164307
▁MỞ -7.831964492797852
▁PHÍA -7.833632946014404
▁ĐÊ -7.834718704223633
▁SÂN -7.834749698638916
▁KÝ -7.836303234100342
▁ĐOẠN -7.839272499084473
▁PHỤC -7.839645862579346
▁CHÚ -7.839763641357422
▁NGOẠI -7.846080780029297
▁LAN -7.849649906158447
▁ĐỒ -7.853279113769531
▁TÀU -7.8536376953125
▁LỜ -7.855016231536865
▁DANH -7.85513973236084
▁BIẾN -7.8553948402404785
▁ĐẠT -7.855959415435791
▁DÀI -7.862443923950195
Ư -7.865967273712158
▁KHẨU -7.868079662322998
▁NƠI -7.869444370269775
▁HƯỚNG -7.870934963226318
J -7.871752738952637
▁RỜ -7.872635841369629
▁LUẬT -7.87307596206665
▁CHUYÊN -7.874238967895508
▁TRANH -7.877657413482666
▁ĐÂU -7.879136562347412
▁NỜ -7.87931489944458
▁NGHĨ -7.881302833557129
▁DÉT -7.883119106292725
OR -7.883222579956055
▁KHÁ -7.8856000900268555
Ỡ -7.889357089996338
▁BÉ -7.890475273132324
▁MẤT -7.89594030380249
▁GÁI -7.896100044250488
▁QUẢN -7.896519660949707
▁HẠN -7.897984027862549
▁LỘ -7.8992719650268555
▁DẠ -7.901334285736084
▁XIN -7.902307987213135
Ú -7.903446674346924
▁KHOA -7.908456325531006
▁NHÓM -7.908954620361328
▁ĐÔ -7.909302234649658
HA -7.910882472991943
▁GHI -7.910975933074951
▁PH -7.912540435791016
Ơ -7.914834976196289
▁HUYỆN -7.916561603546143
▁GIÁM -7.922277927398682
▁ĐỨC -7.922731876373291
TE -7.9229350090026855
TA -7.9256134033203125
▁CHƠI -7.928812503814697
▁SANG -7.929669380187988
▁KỂ -7.9298601150512695
▁THẬT -7.934598445892334
▁LIỆU -7.935418128967285
▁PHIM -7.937397003173828
▁THOẠI -7.938192844390869
▁XUỐNG -7.938482761383057
▁TRẢ -7.939083099365234
▁LỢI -7.93943977355957
▁LẤY -7.940212726593018
▁Ô -7.940897464752197
▁KHOẢN -7.941679954528809
▁MẮT -7.943221569061279
▁KIỆN -7.943500995635986
▁CO -7.947301387786865
▁ĐẶT -7.947525501251221
▁CHỌN -7.949855327606201
▁OÁT -7.950528144836426
▁VẬN -7.951210975646973
▁LUYỆN -7.951406478881836
▁THẮNG -7.952066421508789
▁HỮU -7.954817295074463
▁TỜ -7.95488977432251
▁CHỐNG -7.955805778503418
▁TUẦN -7.956118583679199
MA -7.956757545471191
▁TƯƠNG -7.957465171813965
▁BÀI -7.961284160614014
▁ĐA -7.962308883666992
▁HẬU -7.963240146636963
▁NHỎ -7.965868949890137
▁PHÁ -7.968301296234131
▁KHẢ -7.973249435424805
▁HỖ -7.973816871643066
▁W -7.976460933685303
▁BẮC -7.977293014526367
▁MỤC -7.982117176055908
▁CỬA -7.983130931854248
▁RÕ -7.992152690887451
Ă -7.992480278015137
▁À -7.992930889129639
▁NẠN -7.993505954742432
▁MẪU -7.993531227111816
▁NỔI -7.994045257568359
▁TƯỚNG -7.995104789733887
▁VÀNG -7.996855735778809
▁TỊCH -7.997570991516113
▁LÃNH -7.999094486236572
▁XI -8.001167297363281
▁ĐỜI -8.001501083374023
▁USD -8.012076377868652
▁SẺ -8.013591766357422
▁ỦY -8.014548301696777
Ó -8.015718460083008
▁TU -8.016880989074707
▁NA -8.017571449279785
▁XỬ -8.02165412902832
▁SE -8.02198600769043
NE -8.02441120147705
CK -8.03437328338623
▁DƯƠNG -8.037955284118652
▁DƯỚI -8.040139198303223
▁TIẾT -8.043403625488281
▁XẢY -8.044836044311523
▁RO -8.047445297241211
▁ÍT -8.050187110900879
▁SƯ -8.050337791442871
▁NGHE -8.053314208984375
▁QU -8.058730125427246
▁CHUẨN -8.059025764465332
▁VÙNG -8.0612154006958
▁TRÁI -8.061429023742676
▁THUẬT -8.061705589294434
▁NINH -8.061949729919434
▁HÁT -8.063943862915039
▁BÁC -8.06505298614502
▁TỐ -8.065703392028809
▁NGHIỆM -8.065735816955566
▁HIỂU -8.066527366638184
▁TRÒ -8.066557884216309
▁NGHĨA -8.068609237670898
TH -8.069543838500977
▁VÍ -8.076057434082031
▁CHA -8.082340240478516
▁CỤ -8.0839262008667
▁BÊ -8.087146759033203
▁VUÔNG -8.087950706481934
▁NHA -8.088372230529785
▁ĐỦ -8.08854866027832
▁MÃ -8.089339256286621
TI -8.0912446975708
Í -8.092207908630371
Ụ -8.093486785888672
▁THƯ -8.093660354614258
▁PHONG -8.09698486328125
▁ÁP -8.098297119140625
▁TRỰC -8.098824501037598
▁VỢ -8.098867416381836
LL -8.099035263061523
▁PHÓ -8.101805686950684
▁PHÂN -8.105908393859863
▁CUNG -8.107074737548828
▁TÂY -8.110749244689941
▁ÍCH -8.11120319366455
US -8.113042831420898
▁PHÍ -8.113483428955078
Ở -8.117025375366211
▁GỒM -8.118900299072266
DA -8.121999740600586
TO -8.123126983642578
▁CHÂN -8.12502670288086
▁KIM -8.126416206359863
▁TRÚ -8.130828857421875
▁PHI -8.130974769592285
▁LUẬN -8.131084442138672
▁HOẠCH -8.13209342956543
▁TẢI -8.134986877441406
▁NHANH -8.13602352142334
▁HUẤN -8.140625953674316
NI -8.14297866821289
SS -8.149591445922852
▁ĐÁNG -8.152627944946289
▁TỨC -8.156708717346191
▁CHẾT -8.157649993896484
▁CỰC -8.159049987792969
▁NHẰM -8.16187572479248
▁VỌNG -8.170072555541992
▁HUY -8.170435905456543
▁TỐI -8.173233985900879
▁TUYÊN -8.173821449279785
▁BÍ -8.176734924316406
▁HƯỞNG -8.181509971618652
BA -8.182077407836914
▁VỐN -8.183340072631836
▁NGHIÊN -8.184904098510742
▁LƯU -8.187077522277832
▁CÂY -8.187216758728027
▁LÒNG -8.18848991394043
▁BƯỚC -8.192092895507812
▁HẠ -8.192290306091309
▁LỄ -8.194097518920898
▁ĐÀN -8.194683074951172
▁CỬ -8.198267936706543
▁BỜ -8.198355674743652
▁MÊ -8.199697494506836
▁TINH -8.202109336853027
Ì -8.204803466796875
▁CHỒNG -8.205740928649902
ET -8.206543922424316
▁THUẬN -8.207448959350586
▁CHU -8.208730697631836
▁TUYỂN -8.210640907287598
▁THẦN -8.213550567626953
▁TÔ -8.21397590637207
▁ĐỐC -8.215832710266113
▁MÀU -8.216370582580566
UR -8.217124938964844
▁CẠNH -8.221087455749512
▁SẮC -8.221305847167969
▁SƠN -8.227463722229004
▁NHẠC -8.228678703308105
▁NÔNG -8.230297088623047
DE -8.232057571411133
ỀN -8.232744216918945
▁QUẢNG -8.234126091003418
▁ĐÓNG -8.234715461730957
▁VUI -8.236801147460938
▁ĐỨNG -8.238205909729004
▁TRẦN -8.242704391479492
▁LAO -8.243160247802734
▁ẤN -8.246177673339844
▁PHIÊN -8.247262954711914
▁XÊ -8.247381210327148
▁ĐẢO -8.247867584228516
▁XÉT -8.248271942138672
▁KHỎI -8.24897289276123
▁CHỨ -8.25570011138916
▁SU -8.258466720581055
▁NGÀNH -8.259079933166504
▁HY -8.2600736618042
▁PHÓNG -8.261075973510742
▁PHÉP -8.261905670166016
▁CHẠY -8.262809753417969
▁HÀN -8.263503074645996
▁MÙA -8.264813423156738
▁MẠI -8.265149116516113
CE -8.266733169555664
Ứ -8.268227577209473
▁ĐÀO -8.269148826599121
▁CÀNG -8.272441864013672
▁CHIỀU -8.278778076171875
VI -8.279447555541992
▁MẶC -8.279694557189941
▁CHẮC -8.280205726623535
CA -8.283388137817383
▁RIÊNG -8.284244537353516
▁VỜ -8.28464126586914
▁TRAI -8.284720420837402
▁GIỐNG -8.286054611206055
▁BI -8.287440299987793
▁NHỚ -8.288158416748047
▁YẾU -8.288703918457031
▁GỬI -8.289876937866211
▁TRÁCH -8.290099143981934
▁IN -8.292162895202637
▁DUNG -8.293242454528809
▁DUY -8.293522834777832
DI -8.294407844543457
▁BIÊN -8.29499626159668
▁XA -8.295866966247559
▁ĐỘC -8.298567771911621
▁CƯ -8.299817085266113
▁TỶ -8.300080299377441
▁NGHI -8.30225658416748
▁TRẠNG -8.302511215209961
▁NẰM -8.302728652954102
▁PHẢN -8.303043365478516
▁MÙNG -8.304150581359863
ND -8.305301666259766
Ợ -8.306116104125977
▁CĂN -8.30966854095459
▁VIDEO -8.31606674194336
▁CỜ -8.317156791687012
Ự -8.317587852478027
▁TƯỞNG -8.318307876586914
▁DẦU -8.32034969329834
▁ĐẢM -8.32217788696289
▁ÁO -8.323007583618164
Ề -8.323025703430176
▁HÃNG -8.323871612548828
▁TÙ -8.32457160949707
▁QUAY -8.326441764831543
TER -8.328554153442383
▁DỄ -8.328984260559082
▁Z -8.332459449768066
SE -8.334471702575684
▁LỆ -8.33565616607666
▁DÀNH -8.337126731872559
▁LE -8.338671684265137
▁LẠ -8.338953971862793
▁MÔ -8.340347290039062
▁ĐÊM -8.34347915649414
▁NGUY -8.343860626220703
▁QUẬN -8.344383239746094
▁XEN -8.344769477844238
▁TỎ -8.348005294799805
▁LẠC -8.349166870117188
Ổ -8.3517484664917
▁MO -8.353697776794434
▁ĐÔI -8.354995727539062
▁HIỆP -8.356168746948242
▁KỶ -8.356486320495605
▁PA -8.358633041381836
IL -8.360590934753418
SA -8.362116813659668
Ẩ -8.36340045928955
▁TÊ -8.364946365356445
▁LỬA -8.36990737915039
▁BUỔI -8.370296478271484
▁ĐẦY -8.372456550598145
▁KỸ -8.373785018920898
▁& -8.374999046325684
▁HU -8.375506401062012
▁MỒNG -8.377540588378906
▁CỤC -8.377906799316406
▁NGÔI -8.378321647644043
▁DỤC -8.379953384399414
Ỗ -8.379999160766602
▁LÊ -8.380620956420898
▁THỬ -8.381731033325195
▁NGỜ -8.381868362426758
Ặ -8.382895469665527
▁Ờ -8.38433837890625
▁RỘNG -8.388450622558594
▁KHĂN -8.391060829162598
Ủ -8.39122486114502
▁TRỜI -8.39560604095459
▁SOÁT -8.397995948791504
▁MÓN -8.401086807250977
▁NI -8.404595375061035
Ỉ -8.408956527709961
▁NGỌC -8.416840553283691
ME -8.420239448547363
▁HI -8.426019668579102
▁LONG -8.426021575927734
▁TUYẾN -8.426475524902344
▁LÂU -8.426512718200684
▁CƯỜNG -8.429489135742188
▁MAI -8.430365562438965
▁XUÂN -8.432051658630371
▁THẢO -8.438323020935059
GE -8.439208984375
È -8.43989372253418
▁THÚC -8.441083908081055
▁THIÊN -8.446316719055176
▁KHO -8.451334953308105
▁PHÚC -8.45156192779541
▁TRÀ -8.453248977661133
▁ÉT -8.453353881835938
▁ĐÀI -8.456854820251465
▁THUỐC -8.457378387451172
▁TỘI -8.458093643188477
▁NIÊN -8.458374977111816
▁CHUYẾN -8.469118118286133
▁ĐẮP -8.470932960510254
OL -8.472162246704102
▁CHỖ -8.473528861999512
▁GÓP -8.473967552185059
▁MẤY -8.475336074829102
▁ĐẢNG -8.476249694824219
▁QUÁN -8.476963996887207
▁VAI -8.478321075439453
▁THIẾU -8.479462623596191
▁TRI -8.480860710144043
Ũ -8.483589172363281
▁SIÊU -8.483787536621094
▁GIAI -8.485894203186035
▁KHẲNG -8.487908363342285
▁THIỆN -8.488463401794434
▁TOÁN -8.488770484924316
▁TÒA -8.48971176147461
▁TRAO -8.491825103759766
▁KÉP -8.492619514465332
▁JO -8.492793083190918
▁TỈ -8.493813514709473
▁THẦY -8.49575138092041
▁ÂU -8.496899604797363
▁CHỊU -8.498193740844727
▁AL -8.498680114746094
▁PHÚ -8.498873710632324
▁TÁ -8.499943733215332
▁LÁ -8.501999855041504
KI -8.502376556396484
▁CHẤP -8.508769989013672
▁ĐÀ -8.509082794189453
▁CẬU -8.512391090393066
Ẫ -8.513425827026367
▁SỜ -8.51351547241211
▁KIẾM -8.51381778717041
▁NỀN -8.51473331451416
▁HÃY -8.515203475952148
▁VƯỢT -8.518010139465332
▁ƠI -8.520040512084961
▁ĐẨY -8.521957397460938
▁CAN -8.526450157165527
▁CHẲNG -8.529539108276367
▁XÚC -8.530130386352539
▁ĐỜ -8.530526161193848
▁DÊ -8.532123565673828
▁PHỐI -8.533153533935547
▁THỦY -8.533936500549316
▁TRIỀU -8.53403091430664
Ẹ -8.535544395446777
▁LU -8.536446571350098
▁KÉO -8.536771774291992
Ỏ -8.539740562438965
▁TRỤ -8.5402193069458
▁CÀ -8.546606063842773
▁MÔI -8.550312995910645
▁SƠ -8.551949501037598
▁XONG -8.552228927612305
▁KHỞI -8.55601692199707
▁LAI -8.55638599395752
▁LIU -8.556777000427246
VE -8.556829452514648
SI -8.557143211364746
▁LĨNH -8.55907917022705
▁VIẾT -8.56318473815918
▁KHỦNG -8.563346862792969
▁THĂM -8.565224647521973
▁PỜ -8.56567668914795
▁PÊ -8.56613540649414
▁NGỒI -8.566356658935547
▁LỚP -8.56702709197998
GA -8.569174766540527
▁KHỎE -8.572273254394531
▁XỜ -8.574352264404297
▁NHỜ -8.574624061584473
▁PHẠT -8.575054168701172
▁BẠC -8.575966835021973
SH -8.576069831848145
▁HÔN -8.577573776245117
▁TÂN -8.577791213989258
▁NEW -8.579706192016602
▁HƯƠNG -8.580821990966797
BI -8.582478523254395
▁VÂNG -8.585880279541016
▁HIỂM -8.58668041229248
▁QUỜ -8.586834907531738
▁LẮM -8.587994575500488
VA -8.589491844177246
▁QUANG -8.589978218078613
▁TAI -8.593421936035156
▁BẢNG -8.593786239624023
▁HỒNG -8.594691276550293
▁ƠN -8.594935417175293
▁CÚ -8.597664833068848
▁NỖ -8.599967956542969
▁MỘ -8.605636596679688
▁MỐI -8.605714797973633
▁KÍCH -8.605803489685059
▁BO -8.609183311462402
▁BẦU -8.610237121582031
ÁN -8.610509872436523
▁BUỘC -8.61125659942627
▁NẶNG -8.611311912536621
▁COI -8.612159729003906
▁MU -8.612936019897461
▁NÂNG -8.617002487182617
▁BỨC -8.617327690124512
▁HẠI -8.617548942565918
▁HỌP -8.621786117553711
▁DÒNG -8.623241424560547
▁UỐNG -8.623435974121094
▁SỢ -8.625309944152832
▁THÚ -8.629265785217285
▁BE -8.629805564880371
▁THÍ -8.630630493164062
▁JA -8.631967544555664
▁MONG -8.633878707885742
▁PHIẾU -8.634499549865723
Ẻ -8.6363525390625
▁SYRIA -8.6368408203125
Ờ -8.641035079956055
▁MIỀN -8.64266300201416
▁MAR -8.646546363830566
▁HẠT -8.655219078063965
▁GIẤY -8.655473709106445
▁THẤT -8.660760879516602
ƯƠNG -8.661900520324707
▁VẺ -8.662163734436035
▁SUẤT -8.662753105163574
▁HÚT -8.662885665893555
▁KA -8.663473129272461
▁KHÁN -8.663724899291992
▁NO -8.664020538330078
▁SAI -8.667791366577148
BO -8.668412208557129
▁BÁNH -8.670693397521973
▁TRUMP -8.671335220336914
Ị -8.678349494934082
▁SỚM -8.678878784179688
▁CẬP -8.682021141052246
NO -8.682360649108887
▁MẬT -8.68260383605957
▁HẢ -8.682832717895508
▁MÀY -8.685420989990234
▁KIA -8.68614673614502
▁SÂU -8.688166618347168
▁CHÁU -8.690202713012695
▁YÊN -8.691560745239258
IS -8.692292213439941
▁TÍN -8.694668769836426
▁KHỔ -8.695566177368164
KA -8.695601463317871
▁XUYÊN -8.699297904968262
▁THIỆT -8.699723243713379
▁THỤ -8.702507019042969
▁THE -8.702680587768555
▁BỔ -8.704934120178223
▁TỐC -8.705547332763672
▁MỜI -8.709606170654297
▁VA -8.70983600616455
▁TRẮNG -8.7101469039917
▁CLIP -8.710797309875488
▁CHỜ -8.71148681640625
▁GIÀNH -8.712494850158691
0 -8.71501636505127
▁TE -8.71516227722168
DO -8.715302467346191
▁CHÁY -8.717572212219238
▁ĐỎ -8.71762752532959
▁SONG -8.718194961547852
▁ỔN -8.718485832214355
▁HE -8.719138145446777
KE -8.722283363342285
ING -8.727778434753418
▁THỔ -8.727893829345703
▁CẢI -8.727897644042969
▁THẬM -8.72835636138916
▁PHỔ -8.728830337524414
▁TRÌ -8.730355262756348
▁THUẾ -8.730876922607422
▁NHU -8.732070922851562
FF -8.734100341796875
▁MÔN -8.735241889953613
▁NHIỄM -8.737447738647461
UL -8.738112449645996
▁THẤP -8.744233131408691
▁XANH -8.744462966918945
RY -8.745064735412598
▁PHÙ -8.746105194091797
AD -8.747650146484375
▁LƯƠNG -8.75004768371582
▁TẠM -8.751285552978516
▁ĐAU -8.751816749572754
▁MẮC -8.753508567810059
1 -8.756017684936523
▁HẠNG -8.757631301879883
▁LY -8.758228302001953
▁NHÁ -8.760758399963379
▁SI -8.761556625366211
Q -8.762396812438965
YA -8.763869285583496
▁MAY -8.765617370605469
▁GIANG -8.770448684692383
KO -8.772468566894531
▁CHÀO -8.773091316223145
▁KIỂU -8.77469253540039
▁NGHIÊM -8.774806022644043
ENT -8.776830673217773
▁THƠ -8.780524253845215
▁MÀN -8.78110408782959
▁GAM -8.781268119812012
▁PHƯỜNG -8.783092498779297
▁MAN -8.783272743225098
▁TIM -8.783926963806152
▁THƯỞNG -8.78449821472168
▁CHỤP -8.78660774230957
▁SUY -8.787088394165039
▁NGHỈ -8.787252426147461
▁DỤ -8.787354469299316
▁DẤU -8.793052673339844
▁CẦM -8.793228149414062
▁VÀI -8.793733596801758
ED -8.794435501098633
▁ME -8.801186561584473
▁SÔNG -8.802095413208008
▁DƯ -8.802590370178223
▁CHIẾM -8.803671836853027
▁THẲNG -8.804486274719238
Ĩ -8.804561614990234
▁KÍ -8.805742263793945
▁CAM -8.810944557189941
▁TIỆN -8.817293167114258
▁DE -8.819229125976562
▁XẾP -8.819657325744629
▁TẦNG -8.825687408447266
▁HƠI -8.828060150146484
▁NỐI -8.830158233642578
▁ĐÀM -8.8308744430542
▁LÍT -8.832820892333984
▁CÁNH -8.836621284484863
▁QUANH -8.836939811706543
▁LỖI -8.837157249450684
RU -8.838293075561523
▁QUEN -8.839369773864746
▁LƯỢT -8.839574813842773
ARD -8.839967727661133
2 -8.842751502990723
▁RÚT -8.843277931213379
▁THỎA -8.843829154968262
▁THAO -8.844612121582031
▁TRẢI -8.845938682556152
▁ĐỌC -8.846016883850098
MO -8.848343849182129
▁SẴN -8.849143028259277
▁NGỦ -8.849298477172852
▁MÁU -8.849565505981445
▁THẺ -8.850616455078125
▁LÁI -8.852551460266113
▁NÓNG -8.852560043334961
▁BINH -8.852895736694336
▁LOẠT -8.853662490844727
▁KHÓA -8.855486869812012
SHI -8.857804298400879
▁LÂM -8.85824966430664
▁ƯỚC -8.86115550994873
▁NHIỆT -8.861859321594238
▁THƯỢNG -8.863228797912598
▁ĐỔ -8.863424301147461
▁FACEBOOK -8.871367454528809
▁PE -8.871491432189941
Ẽ -8.871587753295898
▁ÁNH -8.87163257598877
▁SẮP -8.871668815612793
▁QUẦN -8.871685028076172
▁CHÚT -8.871707916259766
▁TẦM -8.873406410217285
PA -8.878156661987305
▁NUÔI -8.879361152648926
▁TRUY -8.88156509399414
▁HÙNG -8.882905960083008
▁PHÊ -8.8879976272583
▁NGHỀ -8.889070510864258
▁WE -8.889269828796387
▁LẼ -8.893656730651855
▁PO -8.893877983093262
▁GAME -8.894923210144043
▁HẠNH -8.895963668823242
WA -8.896885871887207
> -8.896953582763672
▁ĐÁP -8.898626327514648
▁CẬN -8.900383949279785
PE -8.90353775024414
BER -8.904581069946289
▁KHẮC -8.905194282531738
▁ĐỪNG -8.905793190002441
▁TỤ -8.906133651733398
▁HỜ -8.907997131347656
▁CÁN -8.908004760742188
▁BIỆN -8.91205883026123
ƯỚC -8.91444206237793
▁TIỂU -8.915246963500977
▁ĐỨA -8.91630744934082
▁ĐEN -8.917804718017578
▁TẾT -8.921197891235352
▁LỆNH -8.924320220947266
▁LỰA -8.925154685974121
▁SUỐT -8.926287651062012
▁ỦNG -8.926944732666016
▁CHỨA -8.927193641662598
▁BÀY -8.927863121032715
▁THÙ -8.929203033447266
▁CẮT -8.929563522338867
▁KẺ -8.93049430847168
▁GIÀ -8.931524276733398
Ễ -8.935464859008789
▁TRƯƠNG -8.937623977661133
▁NIỆM -8.939800262451172
PH -8.946101188659668
▁CHẮN -8.950281143188477
ONE -8.953015327453613
▁NHẤN -8.953424453735352
▁HẮT -8.957959175109863
▁TUẤN -8.959274291992188
▁BÁ -8.959396362304688
▁VE -8.960044860839844
▁SÓNG -8.963072776794434
▁NỔ -8.967353820800781
▁ĐỘT -8.96812629699707
▁ĐƯƠNG -8.969393730163574
▁GIÁC -8.970471382141113
INE -8.97269058227539
▁THỪA -8.973000526428223
▁CUP -8.975000381469727
▁CHĂM -8.978038787841797
▁VONG -8.981249809265137
▁KÊU -8.981291770935059
VN -8.982426643371582
▁ƯU -8.983722686767578
▁TAO -8.989028930664062
▁TẢ -8.989250183105469
▁TRÁNH -8.993309020996094
▁TÚ -8.993348121643066
▁SÚNG -8.995928764343262
▁NHẸ -8.998154640197754
▁THÔN -8.9982328414917
▁TÁI -9.000509262084961
▁XUNG -9.000748634338379
▁NỢ -9.000784873962402
▁RE -9.004035949707031
▁PHÁN -9.004119873046875
▁HÉC -9.005425453186035
▁KHÁM -9.006649017333984
BE -9.007793426513672
▁CHỮ -9.008525848388672
SON -9.010560989379883
▁SỨ -9.01191520690918
▁DẠNG -9.01485538482666
▁INTERNET -9.014911651611328
▁CỰU -9.016373634338379
▁DƯỠNG -9.018065452575684
▁VINH -9.01950454711914
▁IRAN -9.019594192504883
TON -9.02052116394043
▁IS -9.020750999450684
▁CÂN -9.021441459655762
▁HỌA -9.022549629211426
UNK -9.022848129272461
▁RƠI -9.02416706085205
▁PHA -9.025175094604492
▁CHỮA -9.02524185180664
▁ĐỊCH -9.027898788452148
▁LỤC -9.027944564819336
▁QUÊ -9.028374671936035
▁THỊT -9.032657623291016
▁MƯA -9.035928726196289
▁TẶNG -9.035961151123047
▁CŨ -9.03963565826416
▁LƯỢC -9.04243278503418
▁TUYỆT -9.04280948638916
▁PHAN -9.044278144836426
▁CUỐN -9.046003341674805
MAN -9.046855926513672
▁NGẠI -9.047418594360352
▁DỪNG -9.04793930053711
▁DŨNG -9.049406051635742
▁BẮN -9.049452781677246
▁RI -9.05530071258545
▁THIỆU -9.055574417114258
▁KHÁNH -9.056195259094238
▁NẴNG -9.057367324829102
▁KÍNH -9.057765007019043
▁NGĂN -9.06004524230957
▁TẠ -9.060550689697266
▁CHÓNG -9.06161880493164
▁CHỈNH -9.062034606933594
▁TỘC -9.065008163452148
▁KHOÁN -9.067120552062988
▁DÂY -9.075091361999512
▁DỮ -9.078641891479492
▁ƯƠNG -9.080095291137695
▁DÕI -9.081446647644043
GO -9.0825834274292
▁ĐÁM -9.082667350769043
▁VÉ -9.089396476745605
▁CHẶN -9.089500427246094
▁TÚY -9.09147834777832
▁CHỢ -9.091670989990234
▁KHÚC -9.093035697937012
▁NE -9.09537124633789
▁TẠP -9.097055435180664
▁GIẢN -9.09941577911377
▁KE -9.101189613342285
▁BẠI -9.10128116607666
▁NHẮC -9.101492881774902
▁SÀNG -9.101545333862305
▁XỨ -9.103583335876465
Ể -9.104621887207031
▁CHỞ -9.105668067932129
▁UKRAINE -9.105877876281738
▁XU -9.109553337097168
▁MỪNG -9.11268424987793
▁TÔN -9.113271713256836
▁HẤP -9.113822937011719
▁DẦN -9.116765975952148
▁TẬN -9.11744213104248
▁JU -9.118429183959961
▁KHẢO -9.119589805603027
▁BĂNG -9.120378494262695
▁TỆ -9.120676040649414
▁SỸ -9.120749473571777
▁KHÔ -9.121206283569336
▁GO -9.122323036193848
▁JE -9.12281608581543
▁NGÔN -9.125675201416016
▁NHẮN -9.127495765686035
▁PHẬN -9.127756118774414
▁BẬT -9.132197380065918
▁DỊP -9.133602142333984
▁GẮNG -9.133712768554688
▁FAN -9.140933990478516
▁YẾN -9.142383575439453
▁TẮC -9.142407417297363
▁RỜI -9.145075798034668
▁GẮN -9.147943496704102
▁MỎ -9.148248672485352
▁THUÊ -9.149092674255371
Đ -9.153545379638672
▁VƯƠNG -9.154417037963867
▁CẶP -9.154715538024902
▁BUỒN -9.155455589294434
▁XẤU -9.160266876220703
▁ĐỢI -9.16600513458252
▁WA -9.168220520019531
▁Q -9.169048309326172
▁QUÊN -9.173203468322754
Ừ -9.175304412841797
▁TRẤN -9.175848960876465
▁NÈ -9.175851821899414
▁SÀI -9.176578521728516
▁CẤM -9.17798137664795
▁NÚI -9.178797721862793
▁NGẮN -9.180484771728516
LAND -9.181303024291992
▁THẨM -9.181455612182617
▁CƯỜI -9.184078216552734
▁GIÀU -9.184860229492188
▁BEN -9.184967041015625
▁GỐC -9.185272216796875
▁TỒN -9.1867094039917
▁SUNG -9.189827919006348
▁SÓC -9.190309524536133
▁RÀNG -9.19066047668457
▁PHẬT -9.191807746887207
▁THÁC -9.197406768798828
▁BÓ -9.200098037719727
▁NGƯỢC -9.201175689697266
▁THOÁT -9.2041597366333
ZA -9.204532623291016
▁SỬA -9.205720901489258
BANK -9.206963539123535
▁NGON -9.208539009094238
▁ĐOÁN -9.209222793579102
VER -9.21191120147705
▁PHE -9.212655067443848
▁FA -9.215003967285156
▁Ừ -9.215478897094727
▁NIỀM -9.215805053710938
▁LIỀN -9.216401100158691
▁VAY -9.216865539550781
▁RỪNG -9.218404769897461
▁IPHONE -9.221782684326172
▁ĐÍCH -9.228503227233887
▁VÂN -9.22911548614502
FI -9.229795455932617
LLA -9.233071327209473
SK -9.236106872558594
▁QUỸ -9.236530303955078
▁DẠY -9.237523078918457
▁KÊNH -9.23999309539795
▁HẦU -9.240182876586914
Ằ -9.242918968200684
▁LẠNH -9.244511604309082
▁GE -9.244977951049805
▁NHIÊU -9.2486572265625
▁GÒN -9.250235557556152
▁THUA -9.252908706665039
▁MALAYSIA -9.255243301391602
FA -9.255415916442871
▁CHẶT -9.25732421875
▁HẸN -9.257734298706055
▁GÀ -9.2596435546875
▁NGÃ -9.261404991149902
▁CHÀNG -9.262077331542969
▁TÓC -9.263968467712402
▁XÔ -9.264707565307617
▁HƯNG -9.268991470336914
▁VIETNAM -9.270689964294434
▁ĐEM -9.27517318725586
▁HỦY -9.276144027709961
▁TẤM -9.277408599853516
▁TRỐN -9.280679702758789
▁KÉM -9.281537055969238
▁MON -9.283268928527832
▁CƯỚI -9.286709785461426
▁ĐỈNH -9.288331031799316
▁NẮM -9.289761543273926
▁VÕ -9.294146537780762
▁INDONESIA -9.2964448928833
▁BÁT -9.298200607299805
▁Ơ -9.3001070022583
▁NỬA -9.303119659423828
▁KỊP -9.308369636535645
▁BÈ -9.311406135559082
▁BÃO -9.311824798583984
▁BOM -9.314119338989258
▁CHỤC -9.315415382385254
▁PHILIPPINES -9.323410034179688
DER -9.324155807495117
▁ĐỢT -9.324631690979004
▁ONLINE -9.324661254882812
▁THUYẾT -9.326445579528809
▁NHÉ -9.327756881713867
Õ -9.3289155960083
▁NÔ -9.330011367797852
▁XĂNG -9.33188247680664
▁CĂNG -9.33305549621582
▁SỮA -9.334833145141602
▁VĨNH -9.335954666137695
▁NGHÈO -9.33736515045166
▁GIÓ -9.337499618530273
▁VIRUS -9.337567329406738
▁LÃI -9.337600708007812
▁ASEAN -9.340790748596191
▁ĐỠ -9.341418266296387
▁BUÔN -9.346675872802734
▁VỮNG -9.347175598144531
▁PARK -9.347525596618652
▁LẮNG -9.349447250366211
▁BỮA -9.351767539978027
▁THƯA -9.355900764465332
▁SẠCH -9.356144905090332
▁MÁI -9.356666564941406
▁WORLD -9.362015724182129
▁CHE -9.362278938293457
▁HÂM -9.362296104431152
▁QUÀ -9.362598419189453
▁HÈ -9.36345386505127
▁KHUYẾN -9.36386775970459
▁EURO -9.364815711975098
▁GIẾT -9.36495304107666
▁KÊ -9.36695384979248
▁SÀN -9.371200561523438
▁NGƯ -9.37234115600586
▁LIỆT -9.375125885009766
▁KHA -9.377211570739746
▁MIỄN -9.37973403930664
▁KIÊN -9.380210876464844
▁KHIỂN -9.381134033203125
▁TRỒNG -9.381583213806152
▁GƯƠNG -9.382171630859375
▁NGỪNG -9.383047103881836
▁THĂNG -9.384907722473145
▁CHIẾU -9.385931015014648
▁TÚI -9.390209197998047
▁KHẮP -9.391411781311035
▁MẼ -9.391729354858398
▁MƠ -9.394085884094238
▁TRƯNG -9.394150733947754
▁TĨNH -9.394497871398926
▁CƯỚP -9.395482063293457
▁REUTERS -9.397186279296875
▁KỊCH -9.398846626281738
▁CẤU -9.400704383850098
▁DÀNG -9.40141773223877
▁NÀNG -9.401738166809082
▁THAI -9.402647018432617
▁KÌ -9.405076026916504
▁ĐỖ -9.407306671142578
▁THÁCH -9.40820598602295
▁HỀ -9.409638404846191
▁SINGAPORE -9.410222053527832
3 -9.415483474731445
▁APPLE -9.416646003723145
▁GÓC -9.417136192321777
▁NGỤ -9.418111801147461
▁GÓI -9.418523788452148
▁CHÓ -9.422952651977539
▁DẬY -9.423216819763184
LD -9.42352294921875
▁DỊ -9.424275398254395
▁NÊU -9.424684524536133
▁CHẤN -9.425336837768555
▁NGUYỆN -9.425463676452637
▁LŨ -9.425511360168457
▁CHẠM -9.426554679870605
▁ĐÒI -9.428003311157227
▁LEAGUE -9.430096626281738
▁DỌA -9.430869102478027
▁GẤP -9.432696342468262
▁DÁNG -9.432835578918457
▁KHUÔN -9.435064315795898
▁GIỌNG -9.451496124267578
▁ĐIỂN -9.45291805267334
▁MỀM -9.453141212463379
▁MẠCH -9.454614639282227
▁Ư -9.45513916015625
▁SẠN -9.455952644348145
▁LƯỚI -9.460042953491211
IÊN -9.46176528930664
▁RƯỢU -9.464853286743164
▁ĐUA -9.469167709350586
▁CAMERA -9.472432136535645
▁ĐÈN -9.480687141418457
▁HOẢNG -9.48701286315918
▁ĐẠN -9.495369911193848
▁LOÀI -9.497445106506348
▁CAMPUCHIA -9.498964309692383
▁TRÙNG -9.499676704406738
▁MẮN -9.49970531463623
▁THẬP -9.50097370147705
▁HƯ -9.501097679138184
▁XẾ -9.501716613769531
▁LỒ -9.502165794372559
▁AUSTRALIA -9.50316047668457
▁SẮT -9.504867553710938
▁NHĨ -9.506938934326172
▁PHƯỚC -9.509416580200195
▁NGOÁI -9.513406753540039
▁BÃI -9.513596534729004
▁NGỮ -9.517074584960938
▁TÍ -9.517688751220703
▁ĐUỔI -9.518599510192871
▁< -9.520660400390625
▁NGẠC -9.523993492126465
▁TƯƠI -9.525338172912598
▁FOR -9.525468826293945
▁LẪN -9.527142524719238
▁REAL -9.531233787536621
▁ẨN -9.538673400878906
▁THẰNG -9.541204452514648
▁TIÊM -9.542170524597168
▁DONALD -9.543773651123047
▁KHẨN -9.547147750854492
▁BẠO -9.5503511428833
▁XƯA -9.552156448364258
▁LỐI -9.553733825683594
▁ISRAEL -9.553840637207031
▁TRỘM -9.554224967956543
▁GỠ -9.556434631347656
▁DUYÊN -9.560175895690918
▁GHẾ -9.561034202575684
Ử -9.56418514251709
▁MẠC -9.565958976745605
5 -9.605691909790039
Ý -9.66108226776123
Ỷ -9.764002799987793
4 -9.967928886413574
: -10.019083976745605
9 -10.097114562988281
Ỵ -10.164312362670898
7 -10.16777515411377
8 -10.256696701049805
6 -10.297276496887207
Ữ -10.335454940795898
Ỳ -10.386791229248047
Ẳ -10.554983139038086
, -11.143600463867188
_ -11.44338321685791
Ỹ -11.466967582702637
Ẵ -11.770496368408203
@ -11.7777738571167
% -11.897835731506348
' -12.778305053710938
& -13.092676162719727
$ -13.366701126098633
ˈ -14.091906547546387
° -14.193182945251465
Ə -14.205801010131836
Ɪ -14.371125221252441
< -14.58583927154541
า -14.655065536499023
" -14.828471183776855
= -14.828471183776855
Ë -15.053092002868652
Ā -15.098552703857422
น -15.098552703857422
Ö -15.14617919921875
Æ -15.146180152893066
! -15.267013549804688
Ï -15.383646011352539
А -15.425751686096191
ม -15.492441177368164
Е -15.51569938659668
่ -15.539510726928711
้ -15.588900566101074
– -15.614542007446289
ร -15.640859603881836
Н -15.667886734008789
+ -15.695662498474121
ː -15.695662498474121
Ü -15.724234580993652
И -15.724235534667969
ย -15.724235534667969
Î -15.753645896911621
ั -15.815194129943848
ิ -15.815194129943848
ง -15.84746265411377
ต -15.9509859085083
Ʃ -15.950986862182617
ก -15.95098876953125
К -15.988022804260254
Л -15.98802375793457
Ɡ -16.026487350463867
Ī -16.108152389526367
Ɔ -16.108152389526367
Р -16.108152389526367
เ -16.108152389526367
อ -16.151630401611328
ห -16.151634216308594
О -16.151636123657227
จ -16.197080612182617
В -16.197084426879883
ี -16.19709587097168
С -16.244701385498047
ว -16.244701385498047
บ -16.347322463989258
Ō -16.347335815429688
Ő -16.347335815429688
Θ -16.347335815429688
ด -16.347335815429688
Š -16.402889251708984
Ä -16.402891159057617
Ʌ -16.461715698242188
Т -16.461715698242188
М -16.46171760559082
ไ -16.52420425415039
Ŋ -16.59088134765625
ɘ -16.59088134765625
Α -16.59088134765625
Β -16.59088134765625
ท -16.59088134765625
Ɑ -16.662309646606445
\ -16.739233016967773
` -16.739233016967773
Č -16.739233016967773
Д -16.822566986083984
ค -16.82257843017578
* -16.913475036621094
× -16.913475036621094
Ø -16.913475036621094
ɚ -16.913475036621094
ล -17.013463973999023
Я -17.01347541809082
ا -17.01347541809082
ะ -17.12458038330078
ل -17.124584197998047
ي -17.12458610534668
Й -17.124588012695312
У -17.124588012695312
ป -17.124597549438477
์ -17.249568939208984
Г -17.249584197998047
Ǐ -17.24958610534668
ˌ -17.24958610534668
− -17.24958610534668
พ -17.249588012695312
ข -17.39242935180664
ฟ -17.39243507385254
Ɦ -17.392444610595703
ุ -17.392452239990234
ส -17.559093475341797
Б -17.559106826782227
ن -17.559106826782227
; -17.559110641479492
} -17.559110641479492
Û -17.559110641479492
Ɒ -17.559110641479492
Ɜ -17.559110641479492
ช -17.759109497070312
| -17.759111404418945
­ -17.759111404418945
Ě -17.759111404418945
Ǒ -17.759111404418945
َ -17.759111404418945
ب -17.759117126464844
所 -18.009105682373047
ه -18.00910758972168
Μ -18.009111404418945
Ч -18.009111404418945
ر -18.009111404418945
ธ -18.009111404418945
🎵 -18.009111404418945
П -18.009113311767578
ہ -18.00911521911621
ภ -18.009126663208008
و -18.342437744140625
Ş -18.342439651489258
你 -18.342439651489258
的 -18.34244155883789
Ğ -18.342443466186523
Ό -18.342443466186523
Π -18.342443466186523
Ω -18.342443466186523
Ь -18.342443466186523
ถ -18.342443466186523
ผ -18.342443466186523
ึ -18.342443466186523
没 -18.342443466186523
超 -18.342443466186523
還 -18.342443466186523
́ -18.342445373535156
โ -18.34244728088379
ณ -18.34246826171875
Ი -18.34246826171875
З -18.84243392944336
ت -18.84243392944336
ـ -18.84243392944336
Ū -18.842439651489258
ฮ -18.842439651489258
有 -18.842439651489258
« -18.842443466186523
± -18.842443466186523
» -18.842443466186523
Å -18.842443466186523
Ƙ -18.842443466186523
Ǔ -18.842443466186523
ɝ -18.842443466186523
ɳ -18.842443466186523
̀ -18.842443466186523
̉ -18.842443466186523
̣ -18.842443466186523
ج -18.842443466186523
س -18.842443466186523
م -18.842443466186523
ู -18.842443466186523
็ -18.842443466186523
ី -18.842443466186523
Ḅ -18.842443466186523
— -18.842443466186523
• -18.842443466186523
′ -18.842443466186523
⃣ -18.842443466186523
⊙ -18.842443466186523
⋆ -18.842443466186523
以 -18.842443466186523
可 -18.842443466186523
炒 -18.842443466186523
秦 -18.842443466186523
몰 -18.842443466186523
소 -18.842443466186523
참 -18.842443466186523
취 -18.842443466186523
️ -18.842443466186523
💕 -18.842443466186523
🤣 -18.842443466186523
Ł -18.84244728088379
¿ -18.842449188232422
ش -18.842449188232422
们 -18.842449188232422
Ʂ -18.842449188232422
不 -18.842453002929688
国 -18.842453002929688
美 -18.842453002929688
轻 -18.842453002929688
能 -18.842464447021484
Ვ -18.842483520507812
沒 -19.83809471130371
果 -19.83819580078125
如 -19.838294982910156
咱 -19.838394165039062
務 -19.8384952545166
任 -19.838594436645508
♥ -19.838695526123047
Ლ -19.838794708251953
ฤ -19.838895797729492
ک -19.8389949798584
Ы -19.839094161987305
Ш -19.839195251464844
Γ -19.83929443359375
̄ -19.83939552307129
❤ -19.839494705200195
ّ -19.839595794677734
ُ -19.83969497680664
ع -19.839794158935547
Ю -19.839895248413086
ɾ -19.839994430541992
⌒ -19.84009552001953
ษ -19.840194702148438
ศ -19.840295791625977
Х -19.840394973754883
ʤ -19.84049415588379
⁄ -19.840595245361328
แ -19.840694427490234
Λ -19.840795516967773
ᄒ -19.84089469909668
Ć -19.84099578857422
{ -19.841094970703125
̬ -19.84119415283203
Ʒ -19.84129524230957
ื -19.841394424438477
Ð -19.841495513916016
ใ -19.841594696044922
Ǎ -19.84169578552246
ํ -19.841794967651367
Ñ -19.841894149780273
̆ -19.841995239257812
Ʊ -19.84209442138672
Œ -19.842195510864258
̂ -19.842294692993164
Ç -19.842395782470703
ق -19.842418670654297
ً -19.842418670654297
Ś -19.842432022094727
ʻ -19.842432022094727
ز -19.842432022094727
丁 -19.842432022094727
为 -19.842432022094727
卻 -19.842432022094727
拍 -19.842432022094727
腐 -19.842432022094727
花 -19.842432022094727
^ -19.842443466186523
o -19.842443466186523
Þ -19.842443466186523
Ň -19.842443466186523
Ɗ -19.842443466186523
Ƣ -19.842443466186523
Ǹ -19.842443466186523
ʔ -19.842443466186523
ʕ -19.842443466186523
Δ -19.842443466186523
Ρ -19.842443466186523
Ё -19.842443466186523
Ѵ -19.842443466186523
آ -19.842443466186523
ئ -19.842443466186523
ث -19.842443466186523
ح -19.842443466186523
ى -19.842443466186523
ْ -19.842443466186523
ٰ -19.842443466186523
ٹ -19.842443466186523
ڡ -19.842443466186523
ۉ -19.842443466186523
ی -19.842443466186523
ے -19.842443466186523
ฐ -19.842443466186523
ฬ -19.842443466186523
๋ -19.842443466186523
ភ -19.842443466186523
ម -19.842443466186523
យ -19.842443466186523
រ -19.842443466186523
ស -19.842443466186523
ឡ -19.842443466186523
ា -19.842443466186523
្ -19.842443466186523
Ქ -19.842443466186523
Ṇ -19.842443466186523
Ἰ -19.842443466186523
Ὶ -19.842443466186523
∇ -19.842443466186523
≥ -19.842443466186523
≦ -19.842443466186523
≧ -19.842443466186523
♛ -19.842443466186523
♡ -19.842443466186523
✪ -19.842443466186523
❖ -19.842443466186523
『 -19.842443466186523
』 -19.842443466186523
中 -19.842443466186523
丹 -19.842443466186523
丽 -19.842443466186523
么 -19.842443466186523
享 -19.842443466186523
人 -19.842443466186523
什 -19.842443466186523
他 -19.842443466186523
会 -19.842443466186523
位 -19.842443466186523
其 -19.842443466186523
准 -19.842443466186523
几 -19.842443466186523
分 -19.842443466186523
到 -19.842443466186523
剣 -19.842443466186523
华 -19.842443466186523
協 -19.842443466186523
变 -19.842443466186523
哪 -19.842443466186523
單 -19.842443466186523
备 -19.842443466186523
外 -19.842443466186523
失 -19.842443466186523
察 -19.842443466186523
對 -19.842443466186523
小 -19.842443466186523
幾 -19.842443466186523
我 -19.842443466186523
手 -19.842443466186523
拿 -19.842443466186523
探 -19.842443466186523
敗 -19.842443466186523
方 -19.842443466186523
普 -19.842443466186523
朗 -19.842443466186523
样 -19.842443466186523
法 -19.842443466186523
滿 -19.842443466186523
版 -19.842443466186523
特 -19.842443466186523
白 -19.842443466186523
索 -19.842443466186523
组 -19.842443466186523
被 -19.842443466186523
警 -19.842443466186523
議 -19.842443466186523
‪ -19.842451095581055
د -19.84246826171875
Ṭ -19.84246826171875
ฝ -19.84249496459961
Ა -19.84249496459961
Ე -19.84249496459961
Თ -19.84249496459961
Რ -19.84249496459961
Შ -19.84249496459961
Ậ -19.84249496459961
