<blk> 0.0
<sos/eos> 0.0
<unk> 0.0
▁MỘT -4.252020359039307
▁VÀ -4.311939239501953
▁MƯƠI -4.357878684997559
▁LÀ -4.418172836303711
▁CÁC -4.448448657989502
▁HAI -4.601888179779053
▁CỦA -4.639144420623779
▁CÓ -4.698958396911621
▁CÔNG -4.781218528747559
▁NĂM -4.894148826599121
▁TRONG -4.898599147796631
▁ĐÃ -4.906452178955078
▁VỚI -5.032974720001221
▁ĐƯỢC -5.106121063232422
▁NGƯỜI -5.116287708282471
▁CHO -5.170875549316406
▁ĐỂ -5.234210968017578
▁AN -5.274979591369629
▁NHỮNG -5.281444549560547
▁CÁI -5.318524360656738
▁TẠI -5.324504375457764
▁DÂN -5.336736679077148
▁THÌ -5.370096683502197
▁ĐẾN -5.37974739074707
▁VỀ -5.416694641113281
▁BA -5.430145263671875
▁KHÔNG -5.435545921325684
▁HIỆN -5.46403694152832
▁ĐỒNG -5.512757301330566
▁BỘ -5.550062656402588
▁NHÂN -5.5635986328125
▁THÀNH -5.566160202026367
▁NGÀY -5.574835300445557
▁CŨNG -5.589602947235107
▁TRÊN -5.6052069664001465
▁ĐỘNG -5.624815464019775
▁QUAN -5.630424499511719
▁ĐỐI -5.6336541175842285
▁TỈNH -5.670681476593018
▁NÀY -5.676908493041992
▁TỪ -5.683677673339844
▁RA -5.690279483795166
▁VIỆC -5.708710193634033
▁ĐÓ -5.713555812835693
▁TRĂM -5.7268781661987305
▁NƯỚC -5.738763332366943
▁HỘI -5.751523017883301
▁CHÍNH -5.759962558746338
▁THÔNG -5.7620530128479
▁CƠ -5.771637916564941
▁NHIỀU -5.771703720092773
▁NAM -5.786303997039795
▁NGHÌN -5.798343658447266
▁Ở -5.813915252685547
▁ĐỊNH -5.81481409072876
▁CHÍN -5.818797588348389
▁BỊ -5.818867206573486
▁SỐ -5.820786952972412
▁VỤ -5.839454174041748
▁QUỐC -5.851625919342041
▁NHƯ -5.855071544647217
▁BỐN -5.860013008117676
▁VÀO -5.860597610473633
▁MÀ -5.879498481750488
▁ĐIỀU -5.891495704650879
▁PHÁT -5.895320892333984
▁THÁNG -5.897238731384277
▁LÀM -5.916689872741699
▁THEO -5.93829345703125
▁NHÀ -5.938414573669434
▁KHI -5.943788528442383
▁HÀNH -5.945689678192139
▁SỰ -5.945713520050049
▁THỰC -5.955958366394043
▁THỜI -5.956355094909668
▁TRUNG -5.9713568687438965
▁SẼ -5.983003616333008
▁TRƯỜNG -5.988251686096191
▁HỢP -6.002323150634766
▁LƯỢNG -6.00479793548584
N -6.007923126220703
▁GIA -6.011793613433838
▁ĐẦU -6.015140056610107
▁TÁC -6.025204658508301
▁VIỆT -6.026278972625732
▁SÁU -6.039687156677246
▁XÃ -6.045659065246582
▁THỂ -6.047972679138184
▁CHỨC -6.067386627197266
▁LỰC -6.079498291015625
▁HÀNG -6.088883399963379
▁TẾ -6.10645055770874
▁SẢN -6.118950843811035
▁ĐỊA -6.126401424407959
▁CAO -6.130888938903809
▁QUA -6.133530139923096
▁BẢY -6.136738300323486
▁TÁM -6.140522003173828
▁BẢO -6.142526149749756
▁TƯỢNG -6.1548967361450195
▁CHÚNG -6.159510612487793
▁PHẢI -6.165948390960693
▁TIẾP -6.175974369049072
▁PHÒNG -6.177690505981445
▁NAY -6.189992904663086
▁CHỈ -6.191542625427246
▁NGHIỆP -6.201452255249023
▁LÝ -6.201686382293701
▁CHỦ -6.204390048980713
▁TỔ -6.205613136291504
▁HƠN -6.208037853240967
I -6.212113380432129
▁TRIỂN -6.2155585289001465
▁TRA -6.215845584869385
▁PHỐ -6.22623348236084
▁PHƯƠNG -6.232862949371338
▁ĐANG -6.240285396575928
▁RẤT -6.255039691925049
▁HÌNH -6.257205009460449
▁LẠI -6.270030498504639
▁ĐÂY -6.270614147186279
▁TÔI -6.271816730499268
▁HỌC -6.277088165283203
▁TOÀN -6.282445907592773
▁GIAO -6.282828330993652
▁DỤNG -6.310238838195801
▁TRÌNH -6.3187336921691895
▁SAU -6.329680919647217
▁SINH -6.3326029777526855
▁CẤP -6.332625389099121
▁HUYỆN -6.358016014099121
▁ÁN -6.365638256072998
▁KHU -6.3661065101623535
▁CÒN -6.367291450500488
▁NHẬN -6.368260860443115
▁TIN -6.369155406951904
▁PHÁP -6.382904529571533
▁VĂN -6.383291721343994
▁XUẤT -6.393360137939453
▁VỊ -6.396538257598877
▁ĐỀ -6.401278972625732
▁THẾ -6.405448913574219
▁ĐI -6.409127235412598
▁BỆNH -6.415866374969482
▁NHẤT -6.4170379638671875
▁THỊ -6.424206733703613
▁KINH -6.42782735824585
▁BAN -6.433830738067627
▁TĂNG -6.434907913208008
▁VIÊN -6.434982776641846
▁GIÁ -6.437449932098389
▁PHẠM -6.438973903656006
▁CÙNG -6.439075469970703
▁LIÊN -6.446301460266113
▁DỊCH -6.45530891418457
▁MỚI -6.457469463348389
▁TA -6.461246013641357
▁CẢNH -6.462697982788086
▁ĐƯỜNG -6.4718732833862305
▁XE -6.475205421447754
▁BÌNH -6.488709926605225
▁SÁT -6.48899507522583
▁CẢ -6.492837429046631
▁DO -6.499037742614746
▁NỘI -6.507065773010254
▁VI -6.507615089416504
▁DOANH -6.511417388916016
▁VỰC -6.530002117156982
▁ĐỘ -6.533613204956055
▁NÓ -6.536769866943359
▁TÀI -6.547380447387695
▁KẾT -6.551467418670654
▁ĐẠI -6.559375286102295
▁BÁO -6.565408706665039
▁QUY -6.570067882537842
▁NĂNG -6.571183681488037
▁ĐIỂM -6.576817512512207
▁KHAI -6.579370498657227
▁DỰ -6.5876641273498535
▁TƯ -6.589216232299805
▁THỦ -6.596570014953613
▁TỤC -6.6047563552856445
▁LINH -6.605794906616211
▁TRƯỚC -6.609867095947266
▁TÌNH -6.611107349395752
T -6.611796855926514
▁HÀ -6.61343240737915
▁QUẢ -6.6149444580078125
▁HÓA -6.621807098388672
NG -6.623960494995117
M -6.624969005584717
▁THU -6.631596565246582
▁KIỂM -6.637299060821533
▁TRỊ -6.643489360809326
▁QUYẾT -6.65056037902832
▁HOẠT -6.6576008796691895
▁TÂM -6.659403324127197
▁SỞ -6.664548397064209
▁MÌNH -6.67030668258667
▁TỰ -6.674933433532715
▁NHƯNG -6.67842435836792
▁CẦN -6.690802097320557
▁ -6.697237968444824
▁ĐẠO -6.698025703430176
▁CON -6.699540138244629
▁TRỌNG -6.703502655029297
▁GIAN -6.706606864929199
▁CẦU -6.715362071990967
▁TẠO -6.718855381011963
▁CHÍ -6.732644557952881
▁CÁCH -6.74331521987915
▁NGHỊ -6.753901958465576
▁TỚI -6.758573055267334
▁BẮT -6.7655768394470215
▁TIỀN -6.7704572677612305
▁NÊN -6.7737627029418945
▁GIẢI -6.774550437927246
▁ĐIỆN -6.778217792510986
▁THỐNG -6.780731201171875
▁TỔNG -6.795019626617432
▁SỬ -6.797011375427246
▁BẢN -6.798941612243652
▁VỪA -6.807034015655518
▁NHIỆM -6.81914758682251
▁TẬP -6.832147121429443
▁THAM -6.834978103637695
▁NGUYỄN -6.836211681365967
▁BÀN -6.839504241943359
▁TIÊU -6.842636585235596
▁DỰNG -6.846639633178711
▁XỬ -6.846648693084717
▁PHẦN -6.851982593536377
▁XÂY -6.853404521942139
▁LUẬT -6.85939359664917
▁THỨC -6.860609531402588
▁ỦY -6.860980987548828
▁GIỮ -6.861824989318848
▁THANH -6.870285511016846
▁LỚN -6.87414026260376
▁MINH -6.874967098236084
▁TRUYỀN -6.876821994781494
▁THƯƠNG -6.877579212188721
▁Ý -6.881225109100342
▁MẠNH -6.886436939239502
▁ĐẢM -6.894646644592285
▁VÌ -6.899770736694336
▁ĐẢNG -6.900259494781494
▁CHUYỂN -6.9148101806640625
▁LÊN -6.917028903961182
U -6.92177677154541
▁NINH -6.924166202545166
▁HỆ -6.929165840148926
▁VẪN -6.930856227874756
O -6.931214332580566
▁KHOẢNG -6.9315690994262695
▁ANH -6.937585830688477
▁THƯỜNG -6.938240051269531
▁HIỆU -6.939896583557129
▁CHẤT -6.941494941711426
▁ĐẶC -6.944103717803955
▁NGUYÊN -6.949203968048096
▁THỨ -6.952043533325195
▁HỘ -6.962270259857178
▁KHÁC -6.989229679107666
▁ĐẤT -6.9972944259643555
▁KHÁCH -6.99807071685791
▁TIẾN -7.009009838104248
▁EM -7.009089469909668
▁BIẾT -7.009646415710449
▁CHỐNG -7.012390613555908
▁GẦN -7.015437126159668
▁CUỘC -7.022929668426514
▁ĐOÀN -7.026622295379639
▁KHÓ -7.0331711769104
▁GÂY -7.034684181213379
▁CHẾ -7.0385942459106445
C -7.038764953613281
▁NGHỆ -7.0412116050720215
▁PHẨM -7.0425591468811035
▁TÍCH -7.042686462402344
▁QUÝ -7.043639183044434
▁VẤN -7.044549942016602
▁TRỢ -7.053045272827148
▁GIỜ -7.053788185119629
▁BIỆT -7.054224014282227
▁TRIỆU -7.055042743682861
▁TỘI -7.058359622955322
▁CHIẾN -7.064561367034912
▁TRƯỞNG -7.069830417633057
▁ĐƠN -7.070298194885254
▁GIỚI -7.072084903717041
▁ĐỔI -7.072340488433838
▁ĐƯA -7.073231220245361
▁TÍNH -7.074987411499023
▁ÔNG -7.076169967651367
▁MẶT -7.078756332397461
▁NGOÀI -7.0789313316345215
▁VÙNG -7.081416606903076
▁LỢI -7.082942485809326
▁Y -7.090677738189697
▁THI -7.092227458953857
▁HỒ -7.096142768859863
▁QUYỀN -7.097973823547363
▁QUẢN -7.098913669586182
▁BÁN -7.101866722106934
▁NÔNG -7.1039958000183105
▁VẬN -7.106706142425537
▁TP -7.112622261047363
▁KỲ -7.1132731437683105
▁CỨU -7.1141581535339355
▁SÁNG -7.115025997161865
▁RỒI -7.116785526275635
▁NẠN -7.117712497711182
▁ĐÌNH -7.121973514556885
▁HƯỚNG -7.127481460571289
▁BẰNG -7.127775192260742
▁SÁCH -7.134756565093994
▁CÁO -7.136706352233887
▁NGÀNH -7.139502048492432
▁CHƯA -7.140243053436279
▁TỶ -7.143691062927246
A -7.146119117736816
▁MA -7.154560089111328
▁ĐÁNH -7.158363342285156
▁MƯA -7.160709857940674
▁ỨNG -7.163045883178711
▁GIÁO -7.166723728179932
▁THẤY -7.172713756561279
▁DIỄN -7.1786065101623535
▁LỊCH -7.179785251617432
▁NƠI -7.182845115661621
▁CHÁY -7.18391227722168
▁PHỦ -7.184544086456299
▁VIỆN -7.18546724319458
▁GIẢM -7.192826271057129
▁SĨ -7.194559574127197
▁HOÀN -7.19516658782959
▁NHIÊN -7.199211597442627
▁DU -7.202571392059326
▁MẠNG -7.202786445617676
▁SỐNG -7.20377779006958
▁BẮC -7.206473350524902
▁BIỂN -7.207347869873047
▁ẢNH -7.207518577575684
▁QUẢNG -7.207604885101318
▁QUÁ -7.210670471191406
P -7.214432239532471
▁BÊN -7.215882301330566
▁ĐÔNG -7.221069812774658
▁TƯỚNG -7.2213592529296875
▁TRỞ -7.229389190673828
▁PHỤC -7.229702949523926
▁NÓI -7.232360363006592
▁KIẾN -7.235445976257324
▁HÒA -7.239727973937988
▁TỐT -7.245492935180664
▁YÊU -7.245985507965088
▁XẢY -7.2470574378967285
▁SỨC -7.262273788452148
▁VẬY -7.268088340759277
▁LẦN -7.270837783813477
▁PHỐI -7.274938583374023
▁MÁY -7.275912761688232
▁MUA -7.277127265930176
▁BIẾN -7.2856669425964355
▁MỨC -7.288335800170898
▁HỖ -7.290694713592529
▁VỆ -7.291633605957031
▁CHƯƠNG -7.297363758087158
▁NHẬP -7.298255920410156
▁BIÊN -7.300217151641846
▁TUY -7.305370807647705
▁NGUỒN -7.3059258460998535
▁BIỂU -7.307352542877197
▁RÕ -7.311746120452881
▁H -7.312021255493164
▁LẬP -7.323116779327393
▁CÁ -7.325063228607178
▁THIẾT -7.331745624542236
▁NÀO -7.332262992858887
▁XÉT -7.351912975311279
▁DIỆN -7.353292465209961
▁BÀ -7.353847026824951
▁HÔM -7.359498977661133
▁LAO -7.360652923583984
▁CỘNG -7.361907482147217
▁KHẨU -7.362441062927246
▁TỐ -7.371726036071777
▁XÁC -7.371865749359131
▁TRỰC -7.382438659667969
▁TY -7.382852077484131
▁MỸ -7.383765697479248
▁TỊCH -7.389567852020264
▁ĐẠT -7.391477584838867
▁HẠN -7.392172336578369
▁HỌ -7.392664432525635
▁CÁN -7.394525527954102
▁TÚY -7.405254364013672
▁KIỆN -7.405627250671387
▁KHĂN -7.405966758728027
▁LOẠI -7.4092936515808105
▁TUYẾN -7.41703462600708
▁QUÂN -7.424686908721924
▁GÓP -7.4263434410095215
▁TRANG -7.430593013763428
▁RẰNG -7.436464309692383
▁HẾT -7.443387031555176
▁HƯỞNG -7.443437099456787
▁LÃNH -7.453962326049805
▁CƯỜNG -7.453988075256348
▁ĐỘI -7.456692218780518
▁ĐỀU -7.462544918060303
▁GIỮA -7.463829517364502
▁TRẠNG -7.4673027992248535
▁DI -7.470783233642578
▁SƠN -7.472076416015625
▁NGÂN -7.472316265106201
▁TIÊN -7.47470235824585
▁HCM -7.476055145263672
▁DẪN -7.479126930236816
▁VẬT -7.479909420013428
▁TUYÊN -7.483309268951416
▁HẢI -7.483335018157959
▁CHUYÊN -7.490511417388916
▁PHÉP -7.491118431091309
▁TRANH -7.491216659545898
▁TRÍ -7.491971969604492
▁HOẶC -7.49241304397583
Y -7.494783401489258
▁CHÚ -7.499362468719482
▁NHẰM -7.500827312469482
▁HAY -7.5013813972473145
▁MỖI -7.5079426765441895
▁THUẬN -7.5106048583984375
▁LIỆU -7.510711669921875
▁ƯƠNG -7.510819435119629
▁THUỘC -7.511116027832031
▁NẾU -7.512436389923096
▁ĐOẠN -7.513866424560547
▁TỬ -7.514684677124023
▁HOẠCH -7.5152177810668945
▁NGAY -7.516729354858398
▁GIÚP -7.519689559936523
▁KHÍ -7.52009916305542
▁DÙNG -7.523773670196533
▁CHIỀU -7.525792598724365
S -7.525978088378906
▁B -7.5271687507629395
▁MANG -7.531778335571289
▁BẤT -7.540882587432861
▁QUẬN -7.541409969329834
▁LỄ -7.544651031494141
▁TÌM -7.548206329345703
▁COVID -7.548346042633057
▁HUY -7.5526533126831055
▁BẠN -7.554993629455566
▁NÂNG -7.565288543701172
▁SOÁT -7.566796779632568
▁MỤC -7.567451477050781
▁TIỆN -7.571820259094238
▁KÝ -7.573456764221191
▁ĐẤU -7.5771284103393555
▁CHUNG -7.5809125900268555
▁NHÓM -7.5816264152526855
▁TUỔI -7.583101272583008
▁MỞ -7.584749698638916
▁KHỞI -7.586029052734375
▁NGHIÊM -7.5867838859558105
E -7.588311195373535
▁LƯU -7.59001350402832
▁PHƯỜNG -7.6009135246276855
▁ĐÔ -7.6021199226379395
▁CHI -7.6031575202941895
▁NHIỆT -7.607564449310303
▁TẤT -7.60762357711792
▁CA -7.609564304351807
▁ĐẢO -7.613006591796875
▁MÔ -7.613865852355957
▁PHÓ -7.615242004394531
▁TRÁI -7.616232395172119
▁MÔI -7.620188236236572
▁KẾ -7.62349271774292
▁NGUY -7.625972270965576
▁NỮA -7.6267170906066895
▁GIẢ -7.62698221206665
▁PHÚ -7.627304553985596
▁TRẺ -7.627911567687988
▁M -7.628795623779297
▁TRÁCH -7.629877090454102
▁KHOA -7.637091159820557
▁CHỨNG -7.642028331756592
▁CỐ -7.642562389373779
▁DƯƠNG -7.642849922180176
▁NHANH -7.6465044021606445
▁ĐẨY -7.6499104499816895
▁N -7.65757942199707
▁NGHĨA -7.66078519821167
▁TÂY -7.661863327026367
▁THÊM -7.666256427764893
▁CHÂU -7.6677045822143555
▁CỤ -7.67136287689209
▁TẢI -7.671971321105957
▁PHÍ -7.675353050231934
▁PHÍA -7.679488658905029
▁MỌI -7.682906150817871
▁TẠM -7.688422203063965
▁YÊN -7.689709186553955
▁BỐ -7.691112995147705
▁THƯ -7.696231365203857
▁HẠI -7.6969523429870605
▁CẢM -7.697784423828125
▁C -7.702548980712891
▁NGHIỆM -7.703682899475098
▁TÀU -7.709436893463135
▁ĐĂNG -7.7100372314453125
▁CÂY -7.710168838500977
▁CỤC -7.714170932769775
▁PHONG -7.717557907104492
▁YẾU -7.720342636108398
▁RỘNG -7.721837043762207
▁TÔ -7.722278118133545
▁ĐÚNG -7.726502895355225
▁LÚC -7.7270708084106445
▁CHUẨN -7.7278733253479
▁GIÁM -7.730669021606445
▁HIỂM -7.737249851226807
▁THÁI -7.7395148277282715
▁SO -7.739882946014404
▁XUÂN -7.739920616149902
▁THÔN -7.744621276855469
▁Ô -7.747344970703125
▁TIẾT -7.755169868469238
▁PHỤ -7.758838653564453
▁TINH -7.759201526641846
▁NHAU -7.763468265533447
▁LONG -7.763663291931152
▁CỬA -7.7637739181518555
▁CƯ -7.763973712921143
▁ÁP -7.765758991241455
G -7.767195224761963
▁TRÚ -7.767627239227295
▁THUẬT -7.767831325531006
▁TRẬT -7.774747848510742
▁S -7.781890869140625
▁TRẦN -7.782313346862793
▁THÂN -7.786951065063477
▁ĐẤY -7.787270545959473
▁ĐỨC -7.789189338684082
▁THƯA -7.790451526641846
▁PHÂN -7.792216777801514
▁ĐÀ -7.794308662414551
▁DỤC -7.795722961425781
▁KHIẾN -7.796581268310547
▁CHỮA -7.7971320152282715
▁ĐA -7.797541618347168
▁BAO -7.8004937171936035
▁GIANG -7.800973415374756
▁LUÔN -7.807168006896973
▁SƠ -7.807802677154541
▁A -7.808765411376953
▁GHI -7.820693492889404
▁TẾT -7.821167469024658
▁TỐI -7.823662281036377
▁DÀI -7.825586318969727
▁CUNG -7.825920104980469
▁ĐỦ -7.83447265625
▁CỰC -7.836675643920898
▁BIỆN -7.8370490074157715
▁THỦY -7.837427139282227
▁R -7.840205192565918
▁TỪNG -7.840847492218018
▁T -7.841696262359619
▁DUNG -7.843568325042725
▁MUỐN -7.84717321395874
▁GẶP -7.854056358337402
▁ĐÀO -7.860777378082275
▁LĨNH -7.862401485443115
▁CẠNH -7.863492012023926
▁TRƯƠNG -7.874335289001465
▁BỎ -7.878655433654785
▁GỒM -7.880550384521484
▁HẬU -7.88101863861084
▁TAI -7.892517566680908
▁THAY -7.897171497344971
▁SÔNG -7.90066385269165
▁ĂN -7.900862693786621
▁SANG -7.901655673980713
▁TRUY -7.905686378479004
▁LAN -7.9068284034729
▁LUẬN -7.912582874298096
▁ĐẶT -7.915322780609131
▁L -7.920042037963867
▁RIÊNG -7.9209465980529785
▁VỐN -7.924116611480713
▁KỸ -7.925012111663818
▁TUẦN -7.926235198974609
▁PHÁ -7.948047161102295
▁ĐÓNG -7.949342727661133
▁THẢO -7.952460765838623
▁GỌI -7.953985691070557
▁NỀN -7.95481014251709
▁MIỀN -7.9567155838012695
▁HOA -7.957255840301514
▁LÂM -7.960169792175293
▁BỞI -7.963085651397705
▁TỘC -7.96813440322876
▁HỮU -7.9694108963012695
▁TRẢ -7.969809532165527
▁DANH -7.969898223876953
▁MẤT -7.970220565795898
D -7.971393585205078
▁GIẤY -7.972866535186768
▁LẤY -7.973679065704346
▁CÀNG -7.9740118980407715
▁THIÊN -7.97439432144165
▁BÍ -7.974676132202148
▁HOÀNG -7.9800124168396
▁THIẾU -7.981278896331787
▁ĐÁNG -7.981993198394775
▁CHIẾM -7.982874393463135
▁XUYÊN -7.987720489501953
▁MẠI -7.9909796714782715
▁NIÊN -7.992677688598633
▁KỊP -7.992764472961426
▁XIN -7.992825984954834
▁XUỐNG -7.995034217834473
▁CHẤP -7.996039390563965
▁TRÌ -7.997169494628906
▁NGOẠI -7.998447895050049
▁VŨ -7.9994988441467285
▁THÚC -8.006906509399414
▁CỨ -8.008042335510254
▁DÙ -8.010568618774414
▁CỔ -8.0162353515625
▁TÂN -8.018688201904297
▁CHIA -8.02401065826416
▁BƯỚC -8.02414608001709
▁TƯƠNG -8.026369094848633
▁GÌ -8.027549743652344
▁DUY -8.028800964355469
▁NHU -8.0302734375
▁LỘ -8.0309419631958
▁TẤN -8.033153533935547
▁THẦN -8.03347110748291
▁TAY -8.034998893737793
▁KHÁM -8.035501480102539
▁D -8.041501998901367
▁G -8.042330741882324
▁TRÒ -8.046396255493164
▁NHẬT -8.046910285949707
▁ĐÊM -8.046988487243652
▁LỜI -8.047554969787598
▁SÂU -8.048108100891113
NH -8.049726486206055
▁PHỔ -8.050519943237305
▁V -8.050521850585938
▁CAN -8.05142879486084
▁THIỆN -8.053143501281738
▁THẤP -8.0589017868042
▁LÊ -8.062407493591309
▁BUỔI -8.063241958618164
H -8.06406021118164
▁PHẠT -8.065912246704102
▁TỨC -8.070390701293945
▁ĐỜI -8.070566177368164
▁THUỐC -8.079418182373047
▁BÀI -8.081422805786133
▁LA -8.08417797088623
▁NẴNG -8.085760116577148
▁NGHỀ -8.085808753967285
▁VỮNG -8.087867736816406
▁CUỐI -8.088827133178711
▁LŨ -8.094425201416016
▁CĂN -8.094709396362305
▁TRỒNG -8.095085144042969
▁NHỎ -8.096708297729492
▁NỮ -8.101747512817383
▁THIỆT -8.105522155761719
▁KHẢ -8.105575561523438
▁DƯỚI -8.10982608795166
▁KỶ -8.112040519714355
▁ỔN -8.118677139282227
▁HẠ -8.120810508728027
▁TRAO -8.125102996826172
▁PHÙ -8.135805130004883
▁NHIỄM -8.139975547790527
▁PHÚC -8.14320182800293
▁CHỊ -8.14500617980957
▁SẮC -8.14635944366455
▁KHOẢN -8.153078079223633
▁NUÔI -8.155448913574219
▁XEM -8.156488418579102
▁SỚM -8.158223152160645
▁MAI -8.163386344909668
▁RỪNG -8.170280456542969
▁BAY -8.181506156921387
▁LỆ -8.184366226196289
▁HỌP -8.186532974243164
▁MÙA -8.187952041625977
▁MONG -8.18886661529541
Á -8.190455436706543
▁SAO -8.195895195007324
▁TÒA -8.200459480285645
▁SA -8.203569412231445
▁BÃO -8.203683853149414
▁HỒI -8.204275131225586
▁DỊP -8.207352638244629
▁THOẠI -8.207945823669434
▁BẠC -8.208447456359863
▁GIÓ -8.217642784118652
▁VAY -8.222018241882324
▁TRÁNH -8.223089218139648
▁K -8.228114128112793
▁PHÓNG -8.231086730957031
▁KHỎE -8.231300354003906
▁KHẮC -8.232851028442383
Ạ -8.234672546386719
▁ÍT -8.237574577331543
▁THĂM -8.239524841308594
▁KÉO -8.244783401489258
▁HIỂU -8.250576972961426
▁NẶNG -8.252779960632324
B -8.252838134765625
▁GIAI -8.25513744354248
▁BÁC -8.255409240722656
▁TƯỞNG -8.257994651794434
▁CỬ -8.268454551696777
▁NẮNG -8.270232200622559
▁LỆNH -8.271267890930176
▁XÚC -8.272536277770996
▁KỂ -8.273612976074219
▁ĐÁ -8.274234771728516
▁VAI -8.275527000427246
▁DÂY -8.276813507080078
▁CHỌN -8.279074668884277
▁LỪA -8.286473274230957
▁NGHIÊN -8.288829803466797
▁CHẠY -8.291104316711426
▁TOÁN -8.296051979064941
▁CÂU -8.296818733215332
▁QUÁN -8.298894882202148
K -8.299633026123047
▁QUANG -8.30069351196289
▁TÍN -8.306764602661133
▁CHỖ -8.308379173278809
▁MẮC -8.315667152404785
▁NÓNG -8.318163871765137
▁CẬN -8.319347381591797
▁THÁC -8.32079029083252
▁KIẾM -8.320858001708984
▁GỬI -8.323585510253906
▁LÒNG -8.332139015197754
▁NGHI -8.333818435668945
▁ĐẸP -8.335429191589355
▁HỎI -8.336965560913086
▁LO -8.337158203125
▁ĐỘC -8.340394020080566
CH -8.343741416931152
▁BỔ -8.346304893493652
▁NỐI -8.347912788391113
▁KHẲNG -8.349405288696289
▁NGA -8.35220718383789
▁HIỆP -8.352336883544922
▁CẢI -8.353796005249023
▁KHẨN -8.354900360107422
▁NG -8.358927726745605
▁VONG -8.359044075012207
▁KHÁ -8.36040210723877
▁PHIÊN -8.360554695129395
▁TIẾNG -8.363077163696289
▁DÕI -8.364274978637695
▁NH -8.365422248840332
▁TẠP -8.365619659423828
▁Đ -8.367053985595703
▁ĐẦY -8.367820739746094
▁LÀO -8.369349479675293
▁TẦNG -8.369444847106934
▁VƯỢT -8.370806694030762
▁CHẶT -8.371634483337402
▁LƯƠNG -8.374120712280273
▁HÙNG -8.374504089355469
▁KIM -8.376744270324707
▁TO -8.381775856018066
▁BÂY -8.381874084472656
▁NHÌN -8.384773254394531
▁ĐỐC -8.386517524719238
▁SẺ -8.38750171661377
▁LY -8.388592720031738
▁ĐÁP -8.389408111572266
▁ĐỒ -8.395119667053223
V -8.396065711975098
▁CHUYỆN -8.398022651672363
▁THUẾ -8.399309158325195
▁ĐÓN -8.399665832519531
▁NGHĨ -8.404743194580078
▁VÀNG -8.407681465148926
▁XA -8.409296035766602
▁ĐOẠT -8.41317367553711
▁THẮNG -8.413402557373047
▁NỖ -8.414403915405273
▁AI -8.415251731872559
▁SUẤT -8.418164253234863
▁THẨM -8.420702934265137
▁CHIẾC -8.421706199645996
▁VỌNG -8.42291259765625
▁KHỎI -8.426605224609375
▁RÁC -8.426682472229004
▁HƯƠNG -8.429368019104004
▁LAI -8.429545402526855
▁CÔ -8.435192108154297
▁DẤU -8.441584587097168
▁VUI -8.442476272583008
▁LIỆT -8.44274616241455
▁TÊN -8.44288444519043
▁PHẢN -8.443840980529785
▁CÀ -8.446417808532715
▁CHẶN -8.447492599487305
▁ỦNG -8.44891357421875
▁LỚP -8.450226783752441
▁TRỜI -8.452778816223145
▁TRỘM -8.457416534423828
▁TỐC -8.466833114624023
▁TR -8.467297554016113
▁X -8.467838287353516
▁CẬP -8.47033405303955
▁NGĂN -8.47145938873291
▁NGHÈO -8.47237491607666
▁CHUYẾN -8.473431587219238
▁DẦU -8.475478172302246
▁PHỨC -8.481287956237793
▁GẮN -8.482996940612793
▁THỪA -8.488275527954102
▁ĐÀN -8.489652633666992
▁F -8.490791320800781
▁NGHỈ -8.492362022399902
▁HÚT -8.494232177734375
▁TÙ -8.500226020812988
▁CHỈNH -8.5007905960083
▁LÁI -8.502038955688477
▁TRẬN -8.502835273742676
▁CHÁU -8.504142761230469
▁NGỌC -8.508879661560059
▁GIAM -8.509393692016602
▁BUÔN -8.510268211364746
▁VÔ -8.513630867004395
▁CHỊU -8.516230583190918
▁THẬT -8.517977714538574
▁KHỐI -8.518641471862793
▁TRI -8.52216625213623
▁NỔ -8.525736808776855
▁TH -8.525969505310059
▁NIỆM -8.527606010437012
Ò -8.528409004211426
▁LÁ -8.5309419631958
▁SỬA -8.532571792602539
▁MẶC -8.536652565002441
▁HỒNG -8.53682804107666
▁NÚI -8.539510726928711
▁SUNG -8.541205406188965
▁NẰM -8.543737411499023
▁CẦM -8.544645309448242
▁QUÊ -8.551492691040039
▁TÁI -8.553297996520996
▁MẮT -8.555453300476074
▁SẴN -8.55667781829834
▁DẠNG -8.557144165039062
▁MỜI -8.55744457244873
▁DỪNG -8.561132431030273
ER -8.563934326171875
▁Á -8.572713851928711
▁SÀNG -8.573236465454102
▁THÔI -8.575098991394043
▁VĨNH -8.578958511352539
▁DỤ -8.579241752624512
▁THẢI -8.580507278442383
▁ĐỢT -8.587647438049316
▁ÍCH -8.590813636779785
▁NAI -8.592118263244629
▁THỤ -8.59511661529541
▁TẦM -8.595582008361816
▁CHÓNG -8.598475456237793
▁DỄ -8.598725318908691
▁PHÚT -8.601667404174805
▁MÔN -8.604358673095703
▁PHÊ -8.609016418457031
R -8.610800743103027
▁RÔNG -8.612775802612305
▁VÍ -8.613259315490723
▁GIẬT -8.619035720825195
▁KM -8.621260643005371
▁COI -8.621516227722168
▁SÓC -8.62377643585205
▁SƯ -8.625308990478516
▁TỒN -8.6254243850708
▁CHƠI -8.626319885253906
▁ĐỨNG -8.626483917236328
▁KHÁNH -8.62679386138916
▁ĐẮK -8.627059936523438
▁XANH -8.629345893859863
▁TIÊM -8.629693984985352
▁SAI -8.63309383392334
▁THUÊ -8.639808654785156
▁CƯỚP -8.644891738891602
▁I -8.646461486816406
Ế -8.646966934204102
EN -8.652945518493652
▁KIÊN -8.653380393981934
▁GA -8.657852172851562
▁LỞ -8.65806770324707
▁CAM -8.658106803894043
▁THÍCH -8.660715103149414
▁ĐỘT -8.66316032409668
▁PHI -8.665541648864746
▁KHUYẾN -8.668259620666504
▁NỔI -8.669129371643066
▁TUYỂN -8.673154830932617
▁TỤ -8.67341423034668
▁BỀN -8.673673629760742
▁VINH -8.673754692077637
▁ASEAN -8.674532890319824
▁MÀU -8.68027114868164
▁BÀY -8.682313919067383
▁GIỐNG -8.686239242553711
▁P -8.686300277709961
▁MỐI -8.687461853027344
É -8.687854766845703
▁CHÀO -8.688946723937988
▁KHIỂN -8.688946723937988
▁MẪU -8.690608978271484
▁E -8.692290306091309
▁MẸ -8.692728996276855
▁ƯU -8.696056365966797
▁CHẮC -8.69737720489502
▁KHÓA -8.69874095916748
▁CHỨA -8.701460838317871
▁CHĂM -8.702683448791504
▁KÍNH -8.702933311462402
▁KG -8.705060005187988
▁DÀNH -8.705168724060059
▁SÂN -8.705703735351562
▁NGẬP -8.70899772644043
▁SẠT -8.711589813232422
▁ẤY -8.713200569152832
▁ƠN -8.714279174804688
▁GỐC -8.715084075927734
▁TẮC -8.715263366699219
▁HY -8.715620040893555
▁NGUYỆN -8.71994400024414
▁TẶNG -8.724011421203613
▁LÃI -8.727822303771973
▁NỢ -8.728631973266602
▁LẠC -8.729545593261719
▁GIÁC -8.7313814163208
▁NHẤN -8.732287406921387
▁THÍ -8.732708930969238
▁NÊU -8.742032051086426
▁THOÁT -8.742661476135254
▁TỜ -8.743247032165527
▁LẮC -8.744138717651367
▁DỮ -8.745349884033203
▁CHẾT -8.747239112854004
▁BÀO -8.748411178588867
▁CẮP -8.749420166015625
▁XU -8.751191139221191
▁TRÀ -8.751753807067871
Ê -8.75201416015625
▁LÂU -8.752957344055176
▁TIỂU -8.753890037536621
▁TRỐN -8.756778717041016
▁TRẤN -8.762889862060547
▁NẮM -8.764114379882812
▁THẬM -8.76600170135498
▁HUẾ -8.766191482543945
▁CHẼ -8.766983032226562
▁CHÂN -8.767230033874512
▁KÊNH -8.767256736755371
Ố -8.768320083618164
▁HÀN -8.768793106079102
▁CH -8.77424144744873
▁O -8.775947570800781
▁HECTARE -8.7760648727417
▁PHƯỚC -8.780219078063965
▁DẠY -8.782783508300781
▁SẠCH -8.782958984375
▁KÊ -8.785407066345215
▁ƯỚC -8.785930633544922
▁TRIỆT -8.789609909057617
▁DẦN -8.793485641479492
▁SONG -8.796221733093262
▁LỢN -8.797377586364746
Ơ -8.797661781311035
▁BẾN -8.802852630615234
▁NÃ -8.805998802185059
▁ĐỔ -8.809317588806152
▁TRÀO -8.810640335083008
▁MỪNG -8.81329345703125
▁MÉT -8.817462921142578
▁CHỐT -8.817859649658203
▁VÒNG -8.825550079345703
▁CHỢ -8.827718734741211
▁THƯỞNG -8.828561782836914
▁THƯỢNG -8.83188533782959
▁LƯỢC -8.832592010498047
▁MÃ -8.837149620056152
▁LÀNG -8.837224960327148
▁THIỂU -8.837552070617676
▁ÂM -8.840703010559082
ON -8.840744018554688
▁TÔN -8.844802856445312
F -8.84599781036377
RA -8.850855827331543
RO -8.851326942443848
Ồ -8.852044105529785
▁VIẾT -8.853200912475586
▁XONG -8.853405952453613
▁THƠ -8.853714942932129
▁DƯ -8.855650901794434
▁PH -8.857022285461426
▁TRỤ -8.858546257019043
▁Ạ -8.86254596710205
▁CHỤC -8.864078521728516
Ộ -8.865503311157227
▁CAI -8.86764907836914
▁BÉ -8.86994457244873
▁ĐÍCH -8.870244979858398
Ậ -8.870641708374023
▁TRẢI -8.872294425964355
▁CHỨ -8.875106811523438
▁ÂU -8.879197120666504
▁ÁNH -8.88196849822998
▁ẤN -8.885457038879395
▁VACCINE -8.886202812194824
▁THAO -8.888229370117188
▁NIỀM -8.888335227966309
▁BỨC -8.889937400817871
▁KH -8.8919095993042
▁QUỸ -8.892507553100586
▁XĂNG -8.8946533203125
▁BUỘC -8.897558212280273
▁LÂY -8.898204803466797
▁RÚT -8.89949893951416
▁SÚNG -8.899715423583984
▁TRẠM -8.901228904724121
▁TỎ -8.907732963562012
Ô -8.912668228149414
▁UBND -8.920663833618164
▁ĐÂU -8.923203468322754
▁HẦU -8.924530982971191
▁XUNG -8.927177429199219
▁LỬA -8.929858207702637
▁LỰA -8.93242073059082
L -8.933507919311523
▁TÀNG -8.934124946594238
▁CẮT -8.935661315917969
▁NHỜ -8.937051773071289
Ư -8.938701629638672
▁QUANH -8.9393892288208
Ù -8.939764022827148
▁DƯỠNG -8.944655418395996
▁CHỞ -8.945287704467773
▁SẮP -8.945785522460938
▁MÁU -8.947144508361816
▁BỐI -8.955788612365723
▁NGHE -8.9580717086792
▁THUYỀN -8.958186149597168
▁RÀNG -8.960134506225586
▁CẤM -8.964386940002441
▁CẢNG -8.964688301086426
Ệ -8.964971542358398
▁DŨNG -8.96761703491211
▁ĐỠ -8.967910766601562
▁PHÁO -8.968164443969727
▁NGƯ -8.971563339233398
▁TẬT -8.972716331481934
▁NGŨ -8.974599838256836
▁HƯNG -8.974621772766113
▁BINH -8.974642753601074
▁VÀI -8.980000495910645
▁TĨNH -8.980293273925781
▁NGỜ -8.980461120605469
▁LÚA -8.981816291809082
▁ĐÀM -8.982683181762695
▁RO -8.984028816223145
▁BỜ -8.985016822814941
▁UỐNG -8.987576484680176
▁QUẦN -8.989463806152344
▁KÍCH -8.989818572998047
▁GÓI -8.991120338439941
▁TRỮ -8.991835594177246
▁NGÃI -8.992798805236816
▁DÒNG -8.993844985961914
▁THẤT -8.994199752807617
▁U -8.994243621826172
▁THỎA -8.995387077331543
▁CẤU -8.99645709991455
▁LỘC -8.99731731414795
▁BÁNH -8.999651908874512
▁TỎA -9.000507354736328
▁MƯU -9.001944541931152
▁VỢ -9.002815246582031
▁ĐUA -9.004219055175781
▁LẠNH -9.005454063415527
▁HIẾN -9.006738662719727
▁TIỀM -9.012161254882812
▁TẬN -9.013371467590332
▁NHẸ -9.018167495727539
▁VÉ -9.021829605102539
Ớ -9.024052619934082
▁CHĂN -9.024316787719727
▁THÚ -9.02540397644043
▁VÕ -9.02621078491211
▁BÓNG -9.026407241821289
▁THIỆU -9.031067848205566
▁SẮT -9.03229808807373
RI -9.033073425292969
▁TUẤN -9.034149169921875
▁RÀO -9.03575611114502
▁TRƯNG -9.039226531982422
▁QUAY -9.040084838867188
▁PHAN -9.040445327758789
▁SUỐT -9.040717124938965
▁SUY -9.043182373046875
▁CHA -9.043693542480469
▁THỔ -9.04712963104248
▁NGỪA -9.04832935333252
▁BÁ -9.051351547241211
▁SỨ -9.055336952209473
▁KHO -9.061387062072754
▁MAY -9.062625885009766
▁LUYỆN -9.064367294311523
▁MẬT -9.06717300415039
▁THÁCH -9.069616317749023
▁LOẠT -9.072805404663086
▁LƯỢT -9.074860572814941
▁DA -9.089981079101562
▁MẼ -9.09280014038086
Z -9.094870567321777
▁TUYỆT -9.095922470092773
▁VƯƠNG -9.096245765686035
▁KÊU -9.096500396728516
▁THỌ -9.102286338806152
▁ĐEM -9.10546875
À -9.10578441619873
▁CƠN -9.106695175170898
▁GỠ -9.106903076171875
Â -9.113249778747559
▁QUEN -9.121637344360352
▁GIẾT -9.12200927734375
Ề -9.123046875
▁PHẬN -9.123764038085938
▁BẠCH -9.126567840576172
▁USD -9.129453659057617
▁NHẮC -9.135039329528809
▁ĐỖ -9.135422706604004
▁DAO -9.137036323547363
▁THẺ -9.140664100646973
EL -9.14409351348877
▁HUYẾT -9.1478271484375
▁BÃI -9.148935317993164
▁QU -9.149535179138184
▁PHIẾU -9.151708602905273
▁NHẠC -9.152961730957031
▁HÁT -9.153100967407227
▁QUÀ -9.155437469482422
▁XẾP -9.155501365661621
▁KHỔ -9.156620979309082
▁CHỮ -9.158204078674316
▁NGÔI -9.160255432128906
MA -9.163848876953125
▁CAMPUCHIA -9.164571762084961
▁EU -9.164751052856445
Ó -9.164912223815918
▁BÓ -9.174717903137207
▁BẦU -9.182174682617188
▁LẬU -9.1863374710083
▁HÔ -9.192544937133789
▁THỬ -9.192849159240723
TA -9.193753242492676
▁RỜI -9.200385093688965
▁TRIỀU -9.204329490661621
▁NỘP -9.208438873291016
▁CHỜ -9.212848663330078
▁KHUYẾT -9.213449478149414
▁HA -9.216797828674316
▁CÁT -9.218263626098633
▁VÂNG -9.224637985229492
▁ĐÒI -9.225491523742676
▁CANH -9.22718334197998
▁PHẤN -9.229086875915527
W -9.232207298278809
Ỡ -9.233550071716309
▁BANG -9.233646392822266
▁HÀO -9.23387336730957
▁THUẪN -9.23586368560791
▁IN -9.237809181213379
▁THÙ -9.240447044372559
Ọ -9.241109848022461
▁THẦU -9.241622924804688
▁XÂM -9.24207878112793
Ặ -9.242929458618164
▁KHẢO -9.245499610900879
▁ĐỎ -9.2456693649292
▁GỖ -9.248504638671875
NA -9.250404357910156
▁GIÀ -9.252799987792969
▁NHỚ -9.2544584274292
▁LỐI -9.258329391479492
▁MÂU -9.258792877197266
LI -9.259992599487305
▁TRƯA -9.26033878326416
▁CHỒNG -9.264995574951172
▁CHU -9.265912055969238
▁MIỄN -9.269048690795898
▁THẦY -9.269674301147461
Ứ -9.271926879882812
▁ĐE -9.273977279663086
▁NGỪNG -9.2767333984375
▁NA -9.278214454650879
▁NHŨNG -9.279096603393555
▁THẲNG -9.279254913330078
▁GẠO -9.281942367553711
▁SÓNG -9.284159660339355
▁HUẤN -9.287972450256348
▁TÚC -9.288310050964355
▁CHẬM -9.290204048156738
▁ÁO -9.291990280151367
▁MI -9.293834686279297
▁GẮNG -9.294354438781738
▁KHÁNG -9.297539710998535
▁NGẮN -9.29934024810791
▁HẤP -9.300789833068848
▁CÂN -9.301114082336426
▁XẾ -9.30239486694336
▁HẠNG -9.302509307861328
▁NGẠI -9.30564022064209
Í -9.306324005126953
▁MẤY -9.314918518066406
▁MŨI -9.316734313964844
▁MẠC -9.31673812866211
▁CHẮN -9.317866325378418
▁LÔ -9.317965507507324
▁XẤU -9.318358421325684
▁ĐƯƠNG -9.318358421325684
▁GÁI -9.318360328674316
▁HỦY -9.320001602172852
Ờ -9.320033073425293
▁MAU -9.320939064025879
▁VƯỜN -9.326101303100586
▁LIỀN -9.326930046081543
▁HẠNH -9.328304290771484
▁VEN -9.328875541687012
▁BỒI -9.34093189239502
▁THẬP -9.342610359191895
▁LẮNG -9.343114852905273
NI -9.344656944274902
▁TRẮNG -9.34631633758545
▁HẸN -9.350884437561035
▁KHỐNG -9.351391792297363
▁LẠNG -9.353999137878418
▁ĐÔI -9.356239318847656
▁UY -9.35627555847168
▁ĐEN -9.358731269836426
RE -9.358736038208008
▁CỰU -9.3614501953125
▁CO -9.365676879882812
▁RƯỢU -9.366775512695312
▁BÈ -9.367141723632812
▁TÁN -9.371679306030273
▁TAM -9.372756004333496
▁LẮP -9.375251770019531
▁XỨ -9.376803398132324
▁ĐÀI -9.379434585571289
▁KHÔ -9.379544258117676
▁HƯ -9.379759788513184
▁TRÚC -9.37977409362793
▁HÃY -9.379778861999512
▁SIÊU -9.38017463684082
▁KHÁN -9.38625431060791
▁TRỌ -9.389962196350098
▁CHỦNG -9.392783164978027
▁TÁ -9.392793655395508
▁HẠT -9.394177436828613
▁TRẠI -9.395432472229004
CO -9.39736557006836
▁THỊT -9.399702072143555
LA -9.400604248046875
▁CHẤN -9.403797149658203
▁GƯƠNG -9.404512405395508
▁TẢNG -9.405842781066895
OR -9.405861854553223
▁GÌN -9.406373023986816
▁MÙNG -9.406509399414062
▁DUYỆT -9.407380104064941
Ụ -9.412314414978027
▁GÀ -9.415558815002441
▁CÁNH -9.416925430297852
▁CHÚC -9.417226791381836
▁ĐÁM -9.41775131225586
▁KHÍCH -9.419419288635254
▁NHA -9.421338081359863
▁CỦNG -9.423602104187012
▁THÁO -9.42383861541748
▁NHI -9.425705909729004
▁HÃNG -9.430608749389648
▁LƯỚI -9.430974960327148
▁ĐÁN -9.432931900024414
▁CHẲNG -9.433365821838379
▁LẺ -9.433536529541016
▁VÂN -9.436816215515137
▁TRINH -9.436922073364258
▁HUYNH -9.437097549438477
▁HUNG -9.44002628326416
▁CHE -9.440279960632324
▁SỢ -9.440511703491211
▁KHẮP -9.440571784973145
▁HỎNG -9.440757751464844
DA -9.44137191772461
▁TẤM -9.443357467651367
▁NGƯỠNG -9.445033073425293
IA -9.446647644042969
Ẻ -9.44810676574707
Ỉ -9.448963165283203
▁CHUỖI -9.44951343536377
▁BÙI -9.452482223510742
▁ĐAU -9.453672409057617
▁FACEBOOK -9.45401382446289
Ự -9.454018592834473
▁ĐỌC -9.4551420211792
▁KIỆM -9.45683765411377
▁TANG -9.456916809082031
▁KHỦNG -9.457025527954102
ET -9.458086013793945
▁PHÁN -9.459550857543945
▁NI -9.461224555969238
▁NGÔ -9.461326599121094
X -9.46810531616211
▁DỐI -9.469928741455078
▁HƠI -9.476252555847168
▁BÁI -9.476712226867676
▁ẤP -9.476826667785645
▁CŨ -9.480046272277832
▁XÓA -9.480486869812012
▁HUỐNG -9.480873107910156
▁GIÁP -9.481497764587402
▁VIRUS -9.48183822631836
▁HO -9.48535442352295
▁DỌA -9.487652778625488
▁CUỐN -9.489014625549316
▁PHIM -9.489075660705566
▁TỆ -9.489859580993652
▁ĐẬP -9.490572929382324
▁KHUÔN -9.491178512573242
▁ĐỚI -9.491353988647461
▁DỰA -9.494987487792969
▁ĐAI -9.496021270751953
▁KIỂU -9.499777793884277
▁BÙ -9.50340461730957
▁NÉT -9.50471019744873
▁GẤP -9.506093978881836
▁BÙNG -9.509173393249512
TE -9.509366035461426
▁W -9.5118989944458
▁HÈ -9.513376235961914
▁TUÂN -9.515843391418457
▁VĨ -9.51620101928711
▁BẮN -9.517244338989258
▁SU -9.5177001953125
ES -9.51888656616211
▁LÃM -9.519449234008789
▁TIỄN -9.519449234008789
▁KIA -9.519747734069824
SA -9.522246360778809
▁LẼ -9.522442817687988
▁KÉM -9.523470878601074
▁RÉT -9.525285720825195
▁ĐUỔI -9.525689125061035
▁CỒN -9.526188850402832
▁TÚI -9.526535034179688
▁BỌN -9.52833366394043
▁TU -9.528969764709473
▁BI -9.532415390014648
▁RƠI -9.53257942199707
Ì -9.534375190734863
TO -9.535717010498047
▁ẤM -9.535836219787598
▁GIẢN -9.536078453063965
▁BẬC -9.540539741516113
▁ĐẠN -9.542186737060547
▁XẢ -9.54304027557373
▁NGỒI -9.546294212341309
▁GI -9.546331405639648
▁HIẾU -9.54691219329834
▁LỤC -9.547118186950684
▁GIẢNG -9.549492835998535
▁HỐI -9.549806594848633
▁KỊCH -9.550217628479004
▁ĐỒN -9.552267074584961
▁SỐT -9.552387237548828
▁VẾT -9.552911758422852
▁NỒNG -9.55623722076416
▁CẠN -9.557181358337402
▁LI -9.558494567871094
▁CHIẾU -9.559574127197266
▁CỔNG -9.559749603271484
▁CƯƠNG -9.560409545898438
▁NGƯỢC -9.565649032592773
▁THÁP -9.567543029785156
▁RỦI -9.568081855773926
▁TÚ -9.570300102233887
▁NGÃ -9.572789192199707
▁ĐÂM -9.5777006149292
▁TÔM -9.580904006958008
▁BÁM -9.583321571350098
▁TRỪ -9.585921287536621
▁KÈM -9.586578369140625
▁BĂNG -9.590006828308105
ÊU -9.59183406829834
▁ẨN -9.593780517578125
▁THỊNH -9.596733093261719
▁ĐIỂN -9.596813201904297
▁VẺ -9.600004196166992
▁RAU -9.605002403259277
▁TRÀN -9.607343673706055
▁VƯỚNG -9.608367919921875
▁MỎ -9.623661994934082
▁SỔ -9.62671184539795
▁VA -9.627490997314453
▁HOANG -9.628543853759766
▁BIA -9.62952995300293
▁LỐC -9.630321502685547
LE -9.632879257202148
HA -9.63316535949707
▁ĐỈNH -9.63729476928711
▁BẬT -9.638877868652344
▁CƯỚC -9.639422416687012
▁QUÉT -9.639554977416992
LO -9.64151668548584
Ã -9.642279624938965
▁GIÃN -9.645395278930664
▁VŨNG -9.645528793334961
▁ME -9.646770477294922
▁Ổ -9.647233963012695
▁KẺ -9.64760684967041
▁ĐẶNG -9.64887523651123
▁CHẤM -9.650017738342285
Ễ -9.650932312011719
▁HỎA -9.652765274047852
▁HỌA -9.65383529663086
▁UKRAINE -9.654142379760742
▁ISRAEL -9.656901359558105
▁TIM -9.658529281616211
▁NHÃN -9.660131454467773
▁LỌC -9.662442207336426
▁LIÊU -9.665068626403809
▁TRÙNG -9.672447204589844
▁NHỰA -9.673850059509277
▁LẮM -9.674084663391113
▁LỖI -9.67509651184082
▁MÂY -9.675960540771484
▁MÓN -9.676241874694824
BA -9.677281379699707
▁ĐẲNG -9.677603721618652
▁MÊ -9.678596496582031
▁MỀM -9.680665016174316
▁LẪN -9.681136131286621
▁NGANG -9.68128776550293
▁KHOÁN -9.687338829040527
▁TẢ -9.687763214111328
Ả -9.688231468200684
▁DẬP -9.691569328308105
▁MÓC -9.692523956298828
▁ĐỐT -9.69443416595459
▁ĐINH -9.695195198059082
▁TUỆ -9.696738243103027
▁TÔNG -9.697953224182129
▁DÀNG -9.701149940490723
▁NGHIỆN -9.701390266418457
▁LẠ -9.702315330505371
AR -9.703774452209473
▁MÁI -9.708398818969727
▁TRĂNG -9.709607124328613
▁LÍT -9.70960807800293
▁ĐÁO -9.71115779876709
▁TƯƠI -9.71765422821045
▁LÃNG -9.718382835388184
▁XÓM -9.720834732055664
▁CAMERA -9.722798347473145
▁HUỲNH -9.723536491394043
▁MÁT -9.729710578918457
Ợ -9.732647895812988
▁TRỤC -9.735021591186523
▁ĐỀN -9.736187934875488
Ị -9.736427307128906
▁SÀI -9.73841381072998
È -9.747076988220215
PA -9.74986457824707
▁TẮT -9.752498626708984
▁LỤT -9.752753257751465
▁DƯỢC -9.753512382507324
▁NGỮ -9.755560874938965
▁DẠ -9.757956504821777
Ở -9.759427070617676
▁CỐT -9.75971508026123
▁LÀNH -9.762654304504395
▁MỰC -9.76499080657959
▁KHÂU -9.767814636230469
▁GÒN -9.767951011657715
▁SI -9.76953125
▁NON -9.774007797241211
▁LIỀU -9.77452564239502
▁MẠO -9.776861190795898
▁LÔNG -9.77994155883789
▁KHUNG -9.781935691833496
▁TÙY -9.782225608825684
▁CỜ -9.784086227416992
▁KIỀU -9.78650951385498
▁MẠCH -9.789106369018555
▁NGÔN -9.791274070739746
▁INTERNET -9.792292594909668
▁CHẢY -9.793347358703613
▁KHEN -9.793745994567871
▁XÁ -9.794611930847168
▁NHUẬN -9.796256065368652
▁THĂNG -9.797842979431152
▁TRÔI -9.798640251159668
▁ĐÈN -9.800764083862305
Ủ -9.809652328491211
▁ĐEO -9.812007904052734
▁KHƠI -9.812530517578125
▁THÙNG -9.814818382263184
AL -9.818477630615234
▁XƯA -9.81900691986084
▁ĐO -9.826460838317871
▁SẠN -9.827208518981934
▁CHẠM -9.827709197998047
▁MẶN -9.827710151672363
▁NGÀN -9.829377174377441
▁CHÙA -9.832362174987793
▁UNG -9.833465576171875
▁TÙNG -9.835877418518066
▁CĂNG -9.84001636505127
DE -9.841448783874512
▁NGẠCH -9.842012405395508
▁ĐỊCH -9.842844009399414
▁NỀ -9.852831840515137
▁THẠNH -9.853156089782715
▁MO -9.857063293457031
▁NỬA -9.862160682678223
▁NHẮN -9.862443923950195
▁HOAN -9.86246109008789
▁ĐIỆP -9.863861083984375
▁MƯỜNG -9.864424705505371
▁ẨM -9.868968963623047
▁MƯƠNG -9.870107650756836
▁ỐNG -9.870397567749023
▁THẠCH -9.876396179199219
Ỗ -9.877636909484863
▁VƯƠN -9.87999439239502
▁SẮM -9.88041877746582
▁NGỤ -9.880507469177246
▁LUỒNG -9.880706787109375
▁NGOÁI -9.883301734924316
▁THIỆP -9.88330364227295
▁SẬP -9.884169578552246
▁HUỆ -9.890547752380371
▁TRAI -9.89269733428955
▁MÃI -9.893200874328613
▁GIÀNH -9.895224571228027
▁LẠT -9.898004531860352
OL -9.899303436279297
▁LANG -9.905624389648438
▁HỘP -9.906359672546387
▁ÂN -9.90667724609375
▁THẬN -9.908150672912598
▁TƯỜNG -9.910226821899414
NE -9.912712097167969
▁LÒ -9.914531707763672
ẾP -9.916518211364746
▁TRE -9.921843528747559
▁MẦM -9.923359870910645
TER -9.925810813903809
▁XÔ -9.926040649414062
▁CẤT -9.933326721191406
▁HÀI -9.936772346496582
▁SUỐI -9.93911075592041
▁ĐOÁN -9.939111709594727
▁NGỘ -9.939496040344238
▁LẠM -9.941073417663574
▁PA -9.941264152526855
▁PHA -9.941607475280762
NO -9.94311809539795
▁COV -9.949884414672852
▁LIÊM -9.951706886291504
▁ÉP -9.95418643951416
▁NHỞ -9.955706596374512
▁VIÊM -9.956361770629883
▁NGÕ -9.957084655761719
▁MÙ -9.957437515258789
KA -9.958413124084473
▁NGỦ -9.958494186401367
▁KHUẨN -9.959155082702637
▁CẨM -9.959465980529785
▁TRUMP -9.960713386535645
▁SARS -9.963838577270508
▁KHÚC -9.966031074523926
ƯỚC -9.966523170471191
▁KHÉP -9.967286109924316
▁DÃ -9.967727661132812
▁VN -9.968670845031738
▁NHỊP -9.971376419067383
▁THỞ -9.976361274719238
▁HÀM -9.977286338806152
▁GIÀU -9.97972297668457
▁DỨT -9.980245590209961
▁VANG -9.98082160949707
▁ĐỢI -9.981200218200684
▁SÀN -9.982196807861328
▁GÓC -9.983431816101074
▁GIẤU -9.9917631149292
J -9.992693901062012
▁DỌC -9.9940185546875
▁VIỄN -9.996930122375488
▁LÂN -9.996935844421387
▁BÒ -9.997308731079102
▁ĐẮC -9.997896194458008
▁TRÂN -9.997897148132324
▁LÙI -9.999518394470215
▁TẠ -10.003914833068848
▁VỠ -10.010311126708984
▁TUM -10.011107444763184
CA -10.011625289916992
▁NHIÊU -10.012040138244629
▁ĐẬM -10.01323127746582
▁VẢI -10.015305519104004
▁ĐẬU -10.017184257507324
▁BỐC -10.0204496383667
▁MỐC -10.024474143981934
▁MM -10.024703979492188
▁BUÝT -10.025469779968262
▁HEROIN -10.027802467346191
▁CHÚT -10.031128883361816
▁ONLINE -10.03516960144043
▁HOÀI -10.037187576293945
▁SƯƠNG -10.039548873901367
▁BẠO -10.040563583374023
▁BẢNG -10.0419282913208
VA -10.042097091674805
▁XỨNG -10.049184799194336
▁THỜ -10.049211502075195
▁THANG -10.053543090820312
▁DÀY -10.06035327911377
▁CỘT -10.061044692993164
▁BUỒN -10.064152717590332
▁CỦ -10.069976806640625
▁RẺ -10.070765495300293
▁DIỆT -10.071097373962402
▁SEN -10.072320938110352
▁ĐIỆU -10.072843551635742
▁CHỤP -10.074934959411621
▁THUYẾT -10.078437805175781
▁BOM -10.080913543701172
▁TREO -10.083429336547852
▁CM -10.0856351852417
▁NGỌN -10.08725643157959
▁BỚT -10.0883150100708
▁TRÚNG -10.08897876739502
▁ĐÊ -10.089499473571777
▁LĂNG -10.090441703796387
▁RỬA -10.090441703796387
▁LẤP -10.09115219116211
▁CỐNG -10.09142017364502
▁VẮNG -10.095426559448242
▁BÁCH -10.095905303955078
▁NỖI -10.097253799438477
▁NHÁNH -10.101513862609863
▁CHÂM -10.104751586914062
▁JO -10.107316017150879
▁KHÊ -10.107771873474121
▁DỊ -10.112201690673828
▁KARAOKE -10.11307144165039
▁SỮA -10.11452579498291
▁GOM -10.115992546081543
▁BÊ -10.116271018981934
▁LỒNG -10.117443084716797
▁THẢ -10.117560386657715
▁LỖ -10.120342254638672
VI -10.12042236328125
▁VẢ -10.121474266052246
▁LOẠN -10.122933387756348
▁THAN -10.123310089111328
▁IRAN -10.12440013885498
▁HIẾM -10.124765396118164
▁HƯU -10.129781723022461
▁VẠN -10.131081581115723
▁PHUN -10.131856918334961
SE -10.134214401245117
▁MỘ -10.137235641479492
▁GỌN -10.138110160827637
▁LOÀI -10.138833045959473
KI -10.140061378479004
▁ẢO -10.14025592803955
▁VẤT -10.141071319580078
SHI -10.143322944641113
▁ĐIỀN -10.145206451416016
▁VỎ -10.148489952087402
▁KÍN -10.150525093078613
▁KHÔI -10.154659271240234
▁XÀI -10.156063079833984
▁BƠM -10.156511306762695
▁TRỊNH -10.161758422851562
▁GHÉP -10.164508819580078
▁ÁI -10.16482162475586
▁CỤM -10.167581558227539
▁HỨNG -10.170648574829102
▁ĐAM -10.171469688415527
▁GẮT -10.172187805175781
▁TRẠCH -10.174116134643555
▁CUBA -10.175662994384766
▁TRÍCH -10.17680835723877
▁MƠ -10.179924011230469
GA -10.180054664611816
▁SÔI -10.184210777282715
▁KHẤU -10.185379028320312
▁MẮN -10.18968391418457
▁MỆNH -10.192041397094727
▁NHĨ -10.192146301269531
▁CHÉM -10.194008827209473
▁CHÓ -10.195512771606445
▁HỞ -10.195822715759277
▁PHẬT -10.199935913085938
▁THÉP -10.200331687927246
▁HOẢNG -10.205497741699219
▁HẦM -10.207491874694824
▁SINGAPORE -10.209490776062012
▁LƯỜNG -10.21390151977539
Ẽ -10.214177131652832
▁QUỲNH -10.214303016662598
YA -10.215377807617188
▁TRỪNG -10.216723442077637
▁NO -10.220600128173828
▁KHOÁNG -10.220670700073242
Ỏ -10.224602699279785
▁RỊA -10.22562313079834
▁LỆCH -10.226227760314941
Ể -10.232948303222656
▁DINH -10.235922813415527
▁HỀ -10.236221313476562
▁AUSTRALIA -10.236661911010742
▁HIỀN -10.239131927490234
▁MANH -10.241110801696777
▁RẢI -10.24243450164795
Ừ -10.244318962097168
Ẹ -10.245437622070312
▁INDONESIA -10.246162414550781
▁THAI -10.247417449951172
▁HỨA -10.24824047088623
CK -10.252845764160156
▁GAME -10.254423141479492
▁NHƠN -10.254500389099121
▁TIẾC -10.256591796875
▁DÂM -10.258272171020508
▁CLIP -10.259112358093262
▁CONTAINER -10.264592170715332
▁TÀN -10.271562576293945
▁TÍ -10.27196979522705
▁RỦ -10.273881912231445
▁SÓT -10.28078842163086
▁KIỆT -10.2850923538208
▁LOAN -10.291991233825684
▁TIỆM -10.296374320983887
▁DÁM -10.298125267028809
▁DỌN -10.298162460327148
Q -10.29855728149414
▁MẢNH -10.299872398376465
▁TRÔNG -10.301831245422363
▁KẸT -10.308669090270996
▁GIỎI -10.309553146362305
▁VƯỢNG -10.309995651245117
▁CẨN -10.312210083007812
▁MÌ -10.313398361206055
▁CHAI -10.31603717803955
▁THÓI -10.316208839416504
▁PHẪU -10.317098617553711
▁DƯỜNG -10.317099571228027
▁LE -10.322906494140625
▁HẸP -10.324702262878418
▁MỔ -10.328311920166016
▁ĐỨA -10.328750610351562
▁ĐẠP -10.329201698303223
▁MÙI -10.331122398376465
▁GAZA -10.332362174987793
▁CẬY -10.337352752685547
▁SYRI -10.337806701660156
▁DONALD -10.339171409606934
▁ỦN -10.346065521240234
▁HẲN -10.347875595092773
▁BỮA -10.348322868347168
▁CỎ -10.348373413085938
▁NHẬU -10.350164413452148
▁ÚNG -10.357558250427246
▁NEW -10.358952522277832
▁NGỌT -10.359882354736328
▁THỤY -10.36031436920166
▁NGẦM -10.361276626586914
▁MÚA -10.363608360290527
▁CHÌM -10.367348670959473
▁RÈN -10.372989654541016
▁VẼ -10.374302864074707
Ổ -10.377290725708008
▁NẢY -10.379131317138672
▁TAXI -10.379137992858887
▁MŨ -10.381668090820312
▁LÔI -10.385706901550293
▁HOẠN -10.387223243713379
▁LẤN -10.390093803405762
▁LỎNG -10.392973899841309
▁RUỘT -10.397790908813477
▁HẰNG -10.399724960327148
▁LẬN -10.402151107788086
▁MỘC -10.404745101928711
▁RUỘNG -10.406035423278809
▁THẢM -10.408754348754883
▁DẬY -10.41976547241211
▁GÒ -10.420154571533203
▁XƯỞNG -10.423226356506348
▁QUẾ -10.424843788146973
▁ĐẮP -10.427197456359863
▁SOẠN -10.429697036743164
▁TƯỚI -10.432695388793945
▁HOẠI -10.437196731567383
▁DÁN -10.439382553100586
▁THO -10.441969871520996
▁KHỬ -10.443288803100586
▁TOUR -10.443770408630371
▁TUNG -10.443955421447754
▁NÚT -10.444253921508789
▁XÀ -10.449707984924316
▁WEB -10.451362609863281
▁MÍA -10.451363563537598
▁SỤT -10.452383995056152
▁VỞ -10.454548835754395
▁KÈ -10.454687118530273
▁PHILIPPINES -10.454935073852539
▁CƯỠNG -10.455960273742676
▁VIDEO -10.455962181091309
▁MƯỢN -10.456470489501953
▁XỈ -10.45806884765625
▁HÁN -10.464555740356445
▁LỌT -10.46832275390625
▁KHIẾU -10.470412254333496
▁Ả -10.482303619384766
▁GHẾ -10.486627578735352
▁SÚC -10.487154006958008
▁KHANG -10.490333557128906
▁TRẦM -10.506349563598633
▁MẾN -10.506362915039062
▁BOT -10.506937980651855
▁HUÂN -10.510125160217285
▁NIÊM -10.512831687927246
▁BÌ -10.517745971679688
▁BẪY -10.51990032196045
▁MỒ -10.523030281066895
▁LÍNH -10.52318000793457
▁CHIÊU -10.523900032043457
▁NEO -10.525382995605469
▁ÚY -10.527019500732422
▁ĐẮN -10.528669357299805
▁TẠC -10.529352188110352
▁HEO -10.533095359802246
▁LEO -10.533252716064453
▁CÚM -10.533637046813965
▁BÔNG -10.534285545349121
▁WEBSITE -10.536406517028809
▁VẸN -10.536962509155273
▁GDP -10.540300369262695
▁MALAYSIA -10.544203758239746
▁LUÂN -10.545323371887207
▁ĐOAN -10.545886993408203
▁GÁNH -10.548126220703125
▁TEST -10.548688888549805
▁THOÁI -10.550374031066895
▁TỌA -10.556015968322754
▁TUYẾT -10.556020736694336
▁BỤI -10.559986114501953
▁GÃY -10.562828063964844
▁LẨN -10.56396770477295
▁MÓNG -10.56500244140625
▁NHƯỢNG -10.565116882324219
▁TÀ -10.565731048583984
▁APEC -10.569686889648438
▁GẠCH -10.57198429107666
▁LÚN -10.574285507202148
▁THUẦN -10.575438499450684
▁RÃI -10.576017379760742
▁HUYỀN -10.577177047729492
▁MUỘN -10.577749252319336
▁RỠ -10.5803804397583
▁RẠCH -10.580645561218262
▁MIỆNG -10.581805229187012
▁PHẾ -10.587445259094238
▁BẾP -10.5886812210083
▁LỀ -10.595050811767578
▁DUYÊN -10.59701919555664
▁TIỆU -10.602333068847656
▁BỂ -10.602516174316406
▁CÃI -10.604708671569824
▁CỌC -10.608278274536133
▁BÔ -10.609294891357422
▁CẶP -10.610067367553711
▁ĐÈO -10.610665321350098
▁CƯỜI -10.61726188659668
▁TRỘN -10.617263793945312
▁VÂY -10.61906623840332
▁NHÁT -10.622086524963379
▁LỤY -10.622688293457031
▁THÔ -10.624785423278809
▁CHÁNH -10.625716209411621
▁PE -10.626338005065918
▁ĐỐNG -10.627214431762695
▁JA -10.631193161010742
▁KHUYÊN -10.632411003112793
▁VUA -10.637317657470703
▁XOÁY -10.640996932983398
▁VỈA -10.643465042114258
▁KHƯƠNG -10.647175788879395
▁CHÈ -10.65127944946289
▁TẨU -10.659021377563477
▁LỨA -10.66405200958252
▁NGON -10.666963577270508
▁NHÉ -10.673970222473145
▁BƠI -10.676106452941895
▁ĐẦM -10.677375793457031
▁GRAM -10.67929744720459
▁MUỐI -10.67993450164795
▁THOÁNG -10.682498931884766
▁NẤU -10.685070991516113
▁BẠI -10.690893173217773
▁LỮ -10.691596031188965
▁FDI -10.692182540893555
▁XOÀI -10.69542407989502
▁THẮT -10.696074485778809
▁HIẾP -10.700643539428711
▁RẬP -10.701951026916504
▁MẪN -10.703914642333984
▁CHỪNG -10.704570770263672
▁GIÃ -10.706267356872559
▁DỆT -10.710498809814453
▁RỒNG -10.71380615234375
▁LƯỠNG -10.716456413269043
▁TẮM -10.717121124267578
▁PHƯỢNG -10.721784591674805
▁CANADA -10.725130081176758
▁NHẢY -10.727140426635742
▁LẬT -10.729832649230957
▁ROBOT -10.7352294921875
▁SĂN -10.7352294921875
Õ -10.739718437194824
▁ĐỰNG -10.73997974395752
▁GIEO -10.746119499206543
▁RẮN -10.74748706817627
▁TỨ -10.749669075012207
▁HẢO -10.752297401428223
▁PALESTINE -10.752984046936035
▁ĐÚC -10.754363059997559
▁GŨI -10.75851058959961
▁THÁNH -10.760592460632324
▁APP -10.762685775756836
▁BƯỞI -10.767557144165039
▁XƯƠNG -10.767557144165039
▁BỌC -10.769658088684082
▁CHÉO -10.773869514465332
▁QUYỆN -10.777413368225098
▁RĂNG -10.780220031738281
▁THỢ -10.783618927001953
▁HỤT -10.784481048583984
▁NHẠY -10.788040161132812
▁GÁC -10.790928840637207
Ĩ -10.98094654083252
Ũ -11.232979774475098
Ỵ -11.260828018188477
Ử -11.458564758300781
Ẳ -11.516365051269531
Ỳ -11.517613410949707
Ỷ -11.770236015319824
Ý -11.823774337768555
Ữ -12.373771667480469
Ẵ -12.69239616394043
Ỹ -12.692496299743652
Ẫ -12.692596435546875
Ằ -12.692696571350098
Ẩ -12.69279670715332
Ắ -12.692896842956543
Ú -12.692996978759766
Ầ -12.693096160888672
Ấ -12.693196296691895
Ă -12.693296432495117
Đ -12.69339656829834
